{
  "version": "1.0",
  "truncation": {
    "direction": "Right",
    "max_length": 128,
    "strategy": "LongestFirst",
    "stride": 0
  },
  "padding": {
    "strategy": {
      "Fixed": 128
    },
    "direction": "Right",
    "pad_to_multiple_of": null,
    "pad_id": 0,
    "pad_type_id": 0,
    "pad_token": "[PAD]"
  },
  "added_tokens": [
    {
      "id": 0,
      "content": "[PAD]",
      "single_word": false,
      "lstrip": false,
      "rstrip": false,
      "normalized": false,
      "special": true
    },
    {
      "id": 1,
      "content": "[UNK]",
      "single_word": false,
      "lstrip": false,
      "rstrip": false,
      "normalized": false,
      "special": true
    },
    {
      "id": 2,
      "content": "[CLS]",
      "single_word": false,
      "lstrip": false,
      "rstrip": false,
      "normalized": false,
      "special": true
    },
    {
      "id": 3,
      "content": "[SEP]",
      "single_word": false,
      "lstrip": false,
      "rstrip": false,
      "normalized": false,
      "special": true
    },
    {
      "id": 4,
      "content": "[MASK]",
      "single_word": false,
      "lstrip": false,
      "rstrip": false,
      "normalized": false,
      "special": true
    }
  ],
  "normalizer": {
    "type": "Lowercase"
  },
  "pre_tokenizer": {
    "type": "ByteLevel",
    "add_prefix_space": false,
    "trim_offsets": true,
    "use_regex": true
  },
  "post_processor": {
    "type": "TemplateProcessing",
    "single": [
      {
        "SpecialToken": {
          "id": "[CLS]",
          "type_id": 0
        }
      },
      {
        "Sequence": {
          "id": "A",
          "type_id": 0
        }
      },
      {
        "SpecialToken": {
          "id": "[SEP]",
          "type_id": 0
        }
      }
    ],
    "pair": [
      {
        "SpecialToken": {
          "id": "[CLS]",
          "type_id": 0
        }
      },
      {
        "Sequence": {
          "id": "A",
          "type_id": 0
        }
      },
      {
        "SpecialToken": {
          "id": "[SEP]",
          "type_id": 0
        }
      },
      {
        "Sequence": {
          "id": "B",
          "type_id": 0
        }
      },
      {
        "SpecialToken": {
          "id": "[SEP]",
          "type_id": 0
        }
      }
    ],
    "special_tokens": {
      "[CLS]": {
        "id": "[CLS]",
        "ids": [
          2
        ],
        "tokens": [
          "[CLS]"
        ]
      },
      "[SEP]": {
        "id": "[SEP]",
        "ids": [
          3
        ],
        "tokens": [
          "[SEP]"
        ]
      }
    }
  },
  "decoder": {
    "type": "ByteLevel",
    "add_prefix_space": true,
    "trim_offsets": true,
    "use_regex": true
  },
  "model": {
    "type": "BPE",
    "dropout": null,
    "unk_token": null,
    "continuing_subword_prefix": null,
    "end_of_word_suffix": null,
    "fuse_unk": false,
    "byte_fallback": false,
    "ignore_merges": false,
    "vocab": {
      "[PAD]": 0,
      "[UNK]": 1,
      "[CLS]": 2,
      "[SEP]": 3,
      "[MASK]": 4,
      "!": 5,
      "\"": 6,
      "#": 7,
      "$": 8,
      "%": 9,
      "&": 10,
      "'": 11,
      "(": 12,
      ")": 13,
      "*": 14,
      "+": 15,
      ",": 16,
      "-": 17,
      ".": 18,
      "/": 19,
      "0": 20,
      "1": 21,
      "2": 22,
      "3": 23,
      "4": 24,
      "5": 25,
      "6": 26,
      "7": 27,
      "8": 28,
      "9": 29,
      ":": 30,
      ";": 31,
      "<": 32,
      "=": 33,
      ">": 34,
      "?": 35,
      "@": 36,
      "A": 37,
      "B": 38,
      "C": 39,
      "D": 40,
      "E": 41,
      "F": 42,
      "G": 43,
      "H": 44,
      "I": 45,
      "J": 46,
      "K": 47,
      "L": 48,
      "M": 49,
      "N": 50,
      "O": 51,
      "P": 52,
      "Q": 53,
      "R": 54,
      "S": 55,
      "T": 56,
      "U": 57,
      "V": 58,
      "W": 59,
      "X": 60,
      "Y": 61,
      "Z": 62,
      "[": 63,
      "\\": 64,
      "]": 65,
      "^": 66,
      "_": 67,
      "`": 68,
      "a": 69,
      "b": 70,
      "c": 71,
      "d": 72,
      "e": 73,
      "f": 74,
      "g": 75,
      "h": 76,
      "i": 77,
      "j": 78,
      "k": 79,
      "l": 80,
      "m": 81,
      "n": 82,
      "o": 83,
      "p": 84,
      "q": 85,
      "r": 86,
      "s": 87,
      "t": 88,
      "u": 89,
      "v": 90,
      "w": 91,
      "x": 92,
      "y": 93,
      "z": 94,
      "{": 95,
      "|": 96,
      "}": 97,
      "~": 98,
      "¡": 99,
      "¢": 100,
      "£": 101,
      "¤": 102,
      "¥": 103,
      "¦": 104,
      "§": 105,
      "¨": 106,
      "©": 107,
      "ª": 108,
      "«": 109,
      "¬": 110,
      "®": 111,
      "¯": 112,
      "°": 113,
      "±": 114,
      "²": 115,
      "³": 116,
      "´": 117,
      "µ": 118,
      "¶": 119,
      "·": 120,
      "¸": 121,
      "¹": 122,
      "º": 123,
      "»": 124,
      "¼": 125,
      "½": 126,
      "¾": 127,
      "¿": 128,
      "À": 129,
      "Á": 130,
      "Â": 131,
      "Ã": 132,
      "Ä": 133,
      "Å": 134,
      "Æ": 135,
      "Ç": 136,
      "È": 137,
      "É": 138,
      "Ê": 139,
      "Ë": 140,
      "Ì": 141,
      "Í": 142,
      "Î": 143,
      "Ï": 144,
      "Ð": 145,
      "Ñ": 146,
      "Ò": 147,
      "Ó": 148,
      "Ô": 149,
      "Õ": 150,
      "Ö": 151,
      "×": 152,
      "Ø": 153,
      "Ù": 154,
      "Ú": 155,
      "Û": 156,
      "Ü": 157,
      "Ý": 158,
      "Þ": 159,
      "ß": 160,
      "à": 161,
      "á": 162,
      "â": 163,
      "ã": 164,
      "ä": 165,
      "å": 166,
      "æ": 167,
      "ç": 168,
      "è": 169,
      "é": 170,
      "ê": 171,
      "ë": 172,
      "ì": 173,
      "í": 174,
      "î": 175,
      "ï": 176,
      "ð": 177,
      "ñ": 178,
      "ò": 179,
      "ó": 180,
      "ô": 181,
      "õ": 182,
      "ö": 183,
      "÷": 184,
      "ø": 185,
      "ù": 186,
      "ú": 187,
      "û": 188,
      "ü": 189,
      "ý": 190,
      "þ": 191,
      "ÿ": 192,
      "Ā": 193,
      "ā": 194,
      "Ă": 195,
      "ă": 196,
      "Ą": 197,
      "ą": 198,
      "Ć": 199,
      "ć": 200,
      "Ĉ": 201,
      "ĉ": 202,
      "Ċ": 203,
      "ċ": 204,
      "Č": 205,
      "č": 206,
      "Ď": 207,
      "ď": 208,
      "Đ": 209,
      "đ": 210,
      "Ē": 211,
      "ē": 212,
      "Ĕ": 213,
      "ĕ": 214,
      "Ė": 215,
      "ė": 216,
      "Ę": 217,
      "ę": 218,
      "Ě": 219,
      "ě": 220,
      "Ĝ": 221,
      "ĝ": 222,
      "Ğ": 223,
      "ğ": 224,
      "Ġ": 225,
      "ġ": 226,
      "Ģ": 227,
      "ģ": 228,
      "Ĥ": 229,
      "ĥ": 230,
      "Ħ": 231,
      "ħ": 232,
      "Ĩ": 233,
      "ĩ": 234,
      "Ī": 235,
      "ī": 236,
      "Ĭ": 237,
      "ĭ": 238,
      "Į": 239,
      "į": 240,
      "İ": 241,
      "ı": 242,
      "Ĳ": 243,
      "ĳ": 244,
      "Ĵ": 245,
      "ĵ": 246,
      "Ķ": 247,
      "ķ": 248,
      "ĸ": 249,
      "Ĺ": 250,
      "ĺ": 251,
      "Ļ": 252,
      "ļ": 253,
      "Ľ": 254,
      "ľ": 255,
      "Ŀ": 256,
      "ŀ": 257,
      "Ł": 258,
      "ł": 259,
      "Ń": 260,
      "Ġt": 261,
      "Ġa": 262,
      "er": 263,
      "in": 264,
      "Ġth": 265,
      "en": 266,
      "Ġc": 267,
      "es": 268,
      "Ġs": 269,
      "Ġd": 270,
      "on": 271,
      "Ġthe": 272,
      "Ġp": 273,
      "an": 274,
      "or": 275,
      "Ġl": 276,
      "Ġm": 277,
      "ar": 278,
      "is": 279,
      "as": 280,
      "al": 281,
      "Ġo": 282,
      "Ġb": 283,
      "Ġde": 284,
      "re": 285,
      "Ġw": 286,
      "Ġf": 287,
      "at": 288,
      "os": 289,
      "it": 290,
      "Ġh": 291,
      "ed": 292,
      "ic": 293,
      "Ġin": 294,
      "Ġe": 295,
      "Ġan": 296,
      "Ġof": 297,
      "un": 298,
      "ent": 299,
      "ro": 300,
      "ad": 301,
      "Ġn": 302,
      "Ġand": 303,
      "om": 304,
      "ci": 305,
      "le": 306,
      "Ġg": 307,
      "ing": 308,
      "us": 309,
      "Ġto": 310,
      "Ġla": 311,
      "Ġis": 312,
      "am": 313,
      "il": 314,
      "Ġen": 315,
      "Ġ1": 316,
      "id": 317,
      "Ġy": 318,
      "ur": 319,
      "ol": 320,
      "ion": 321,
      "el": 322,
      "Ã³": 323,
      "qu": 324,
      "est": 325,
      "Ġel": 326,
      "Ġre": 327,
      "th": 328,
      "Ġun": 329,
      "im": 330,
      "ct": 331,
      "Ġse": 332,
      "Ġcon": 333,
      "Ġal": 334,
      "iv": 335,
      "Ġv": 336,
      "ch": 337,
      "Ġ(": 338,
      "ul": 339,
      "ir": 340,
      "Ġr": 341,
      "ut": 342,
      "ig": 343,
      "Ġbe": 344,
      "all": 345,
      "ÃŃ": 346,
      "Ġcom": 347,
      "Ġfor": 348,
      "et": 349,
      "Ġst": 350,
      "Ġqu": 351,
      "ist": 352,
      "Ġon": 353,
      "ers": 354,
      "Ġit": 355,
      "ay": 356,
      "em": 357,
      "Ã³n": 358,
      "ot": 359,
      "Ġwh": 360,
      "and": 361,
      "Ã¡": 362,
      "op": 363,
      "ce": 364,
      "st": 365,
      "Ġj": 366,
      "ra": 367,
      "ia": 368,
      "Ġ19": 369,
      "ow": 370,
      "Ġque": 371,
      "Ġare": 372,
      "Ġsu": 373,
      "Ġk": 374,
      "Ġas": 375,
      "Ġ2": 376,
      "ant": 377,
      "Ġwas": 378,
      "Ġlos": 379,
      "Ġpar": 380,
      "Ġor": 381,
      "Ġpro": 382,
      "ter": 383,
      "Ġes": 384,
      "Ġch": 385,
      "aci": 386,
      "Ã©": 387,
      "um": 388,
      "ere": 389,
      "od": 390,
      "if": 391,
      "ab": 392,
      "Ġpr": 393,
      "Ġthat": 394,
      "00": 395,
      "av": 396,
      "Ġdel": 397,
      "Ġest": 398,
      "ill": 399,
      "Ġlas": 400,
      "ation": 401,
      "rom": 402,
      "ver": 403,
      "Ġhe": 404,
      "Ġcall": 405,
      "ith": 406,
      "pe": 407,
      "Ġex": 408,
      "Ġat": 409,
      "ud": 410,
      "Ġso": 411,
      "ag": 412,
      "ac": 413,
      "âĢ": 414,
      "ri": 415,
      "Ġus": 416,
      "Ġby": 417,
      "ap": 418,
      "Ġpor": 419,
      "ly": 420,
      "Ġwith": 421,
      "io": 422,
      "Ġco": 423,
      "Ġne": 424,
      "ak": 425,
      "Ġpl": 426,
      "Ġpe": 427,
      "und": 428,
      "ther": 429,
      "ug": 430,
      "ian": 431,
      "ente": 432,
      "Ġcan": 433,
      "Ġsh": 434,
      "Ġar": 435,
      "Ġfrom": 436,
      "Ġle": 437,
      "ain": 438,
      "end": 439,
      "te": 440,
      "'s": 441,
      "ado": 442,
      "igh": 443,
      "iz": 444,
      "ber": 445,
      "ica": 446,
      "Ġwor": 447,
      "Ġthey": 448,
      "Ġ\"": 449,
      "Ġag": 450,
      "ich": 451,
      "up": 452,
      "ran": 453,
      "aciÃ³n": 454,
      "Ġman": 455,
      "ople": 456,
      "Ġpeople": 457,
      "ĠâĢ": 458,
      "ost": 459,
      "Ġam": 460,
      "ate": 461,
      "unt": 462,
      "ÃŃa": 463,
      "oc": 464,
      "ue": 465,
      "ity": 466,
      "ess": 467,
      "ov": 468,
      "Ġuna": 469,
      "ish": 470,
      "ast": 471,
      "so": 472,
      "ies": 473,
      "ort": 474,
      "ome": 475,
      "ip": 476,
      "Ġthis": 477,
      "ave": 478,
      "Ġnot": 479,
      "og": 480,
      "Ġab": 481,
      "ust": 482,
      "per": 483,
      "Ã±": 484,
      "Ġcomp": 485,
      "ore": 486,
      "ame": 487,
      "Ġdes": 488,
      "ard": 489,
      "ive": 490,
      "rit": 491,
      "ĠâĢĵ": 492,
      "ales": 493,
      "ie": 494,
      "ell": 495,
      "ub": 496,
      "pl": 497,
      "Ġbec": 498,
      "Ġi": 499,
      "ada": 500,
      "Ġcomo": 501,
      "ight": 502,
      "Ġaf": 503,
      "cl": 504,
      "Ġhis": 505,
      "Ġpart": 506,
      "Ġcl": 507,
      "Ġmar": 508,
      "ang": 509,
      "to": 510,
      "Ġgo": 511,
      ").": 512,
      "Ġcaller": 513,
      "Ġhave": 514,
      "Ġ-": 515,
      "Ġme": 516,
      "Ġcar": 517,
      "Ãº": 518,
      "ine": 519,
      "Ġ20": 520,
      "ong": 521,
      "Ġper": 522,
      "Ġno": 523,
      "Ġro": 524,
      "Ġtr": 525,
      "Ġalso": 526,
      "Ġhas": 527,
      "Ġad": 528,
      "ib": 529,
      "Ã¡s": 530,
      "uc": 531,
      "),": 532,
      "Ġcont": 533,
      "Ġone": 534,
      "Ġfo": 535,
      "Ġwhich": 536,
      "ke": 537,
      "Ġim": 538,
      "land": 539,
      "Ġdis": 540,
      "ones": 541,
      "Ġ18": 542,
      "ment": 543,
      "Ġsome": 544,
      "de": 545,
      "ld": 546,
      "enci": 547,
      "se": 548,
      "Ġfir": 549,
      "ally": 550,
      "idad": 551,
      "ient": 552,
      "Ġap": 553,
      "ier": 554,
      "ide": 555,
      "ugh": 556,
      "fer": 557,
      "Ġsp": 558,
      "ult": 559,
      "ry": 560,
      "Ġte": 561,
      "ico": 562,
      "Ġmany": 563,
      "use": 564,
      "ear": 565,
      "Ġlo": 566,
      "ge": 567,
      "Ġfirst": 568,
      "Ġwere": 569,
      "Ġpara": 570,
      "man": 571,
      "Ġother": 572,
      "ces": 573,
      "Ġdo": 574,
      "Ġall": 575,
      "Ġcol": 576,
      "Ġcu": 577,
      "ican": 578,
      "ary": 579,
      "Ġthere": 580,
      "ater": 581,
      "con": 582,
      "Ġbo": 583,
      "ect": 584,
      "out": 585,
      "ism": 586,
      "pt": 587,
      "Ġ200": 588,
      "port": 589,
      "ure": 590,
      "Ġbut": 591,
      "Ġser": 592,
      "Ġcalled": 593,
      "Ġtheir": 594,
      "ks": 595,
      "Ġnor": 596,
      "Ġent": 597,
      "ates": 598,
      "Ġem": 599,
      "Ġmay": 600,
      "ach": 601,
      "Ġform": 602,
      "Ġmost": 603,
      "iÃ³n": 604,
      "Ġac": 605,
      "ath": 606,
      "act": 607,
      "Ġpres": 608,
      "ire": 609,
      "ens": 610,
      "ciÃ³n": 611,
      "ios": 612,
      "res": 613,
      "ade": 614,
      "ime": 615,
      "ree": 616,
      "Ġtw": 617,
      "art": 618,
      "Ġ3": 619,
      "Ġres": 620,
      "Ġ201": 621,
      "ass": 622,
      "ese": 623,
      "Ġele": 624,
      "ated": 625,
      "ina": 626,
      "ados": 627,
      "co": 628,
      "ical": 629,
      "ial": 630,
      "ĠmÃ¡s": 631,
      "Ġdif": 632,
      "ero": 633,
      "ien": 634,
      "Ġcount": 635,
      "Ġli": 636,
      "ace": 637,
      "Ġact": 638,
      "Ġwhen": 639,
      "ited": 640,
      "Ġpol": 641,
      "Ġmu": 642,
      "Ġinter": 643,
      "Ġnew": 644,
      "ord": 645,
      "one": 646,
      "les": 647,
      "Ġwar": 648,
      "Ġver": 649,
      "Ġind": 650,
      "Ġmak": 651,
      "Ġyear": 652,
      "lo": 653,
      "Ã¡n": 654,
      "ras": 655,
      "Ġafter": 656,
      "ros": 657,
      "own": 658,
      "Ġson": 659,
      "Ġwho": 660,
      "ind": 661,
      "Ġob": 662,
      "ions": 663,
      "Ġamer": 664,
      "ph": 665,
      "Ġused": 666,
      "Ġmed": 667,
      "ido": 668,
      "Ġcent": 669,
      "Ġgen": 670,
      "era": 671,
      "Ġpre": 672,
      "Ġabout": 673,
      "aj": 674,
      "Ġworld": 675,
      "Ġtwo": 676,
      "fic": 677,
      "Ġits": 678,
      "ores": 679,
      "ans": 680,
      "Ġgr": 681,
      "ante": 682,
      "peci": 683,
      "ack": 684,
      "age": 685,
      "ose": 686,
      "Ġev": 687,
      "Ġhad": 688,
      "Ġunited": 689,
      "uld": 690,
      "amb": 691,
      "ular": 692,
      "Ã©n": 693,
      "Ġincl": 694,
      "ok": 695,
      "Ġz": 696,
      "Ġcomm": 697,
      "Ġmov": 698,
      "ign": 699,
      "ual": 700,
      "Ġmore": 701,
      "ten": 702,
      "ause": 703,
      "ru": 704,
      "Ġfl": 705,
      "orm": 706,
      "Ġrep": 707,
      "Ġyo": 708,
      "Ġeng": 709,
      "Ġpo": 710,
      "Ġpu": 711,
      "Ġcre": 712,
      "Ġrel": 713,
      "que": 714,
      "Ġdur": 715,
      "Ġagent": 716,
      "Ġsin": 717,
      "ando": 718,
      "amp": 719,
      "Ġcity": 720,
      "orn": 721,
      "Ġsol": 722,
      "ings": 723,
      "ice": 724,
      "Ġot": 725,
      "cid": 726,
      "Ġmade": 727,
      "Ġmo": 728,
      "arg": 729,
      "der": 730,
      "Ġfe": 731,
      "du": 732,
      "Ġstates": 733,
      "Ġpers": 734,
      "Ġph": 735,
      "encia": 736,
      "Ġreg": 737,
      "Ġher": 738,
      "Ġmon": 739,
      "Ġter": 740,
      "Ġcons": 741,
      "Ġjo": 742,
      "Ġsi": 743,
      "ren": 744,
      "bre": 745,
      "Ġkn": 746,
      "ivers": 747,
      "int": 748,
      "mente": 749,
      "Ġgro": 750,
      "Ġwe": 751,
      "Ġcap": 752,
      "ident": 753,
      "Ġout": 754,
      "Ġtra": 755,
      "uth": 756,
      "gan": 757,
      "Ġ199": 758,
      "ric": 759,
      "Ġtod": 760,
      "ubl": 761,
      "Ġup": 762,
      "Ġthan": 763,
      "uro": 764,
      "Ġbecause": 765,
      "Ġrec": 766,
      "Ġpop": 767,
      "Ġ4": 768,
      "Ġtime": 769,
      "Ġhow": 770,
      "Ġamerican": 771,
      "amente": 772,
      "adas": 773,
      "Ġthem": 774,
      "wn": 775,
      "Ġfran": 776,
      "Ġsy": 777,
      "Ġinto": 778,
      "aÃ±": 779,
      "Ġed": 780,
      "Ġho": 781,
      "Ġnum": 782,
      "Ġmus": 783,
      "Ġear": 784,
      "Ġbas": 785,
      "ile": 786,
      "ied": 787,
      "Ġlike": 788,
      "eral": 789,
      "Ġplay": 790,
      "ory": 791,
      "ern": 792,
      "able": 793,
      "Ġinf": 794,
      "ura": 795,
      "rol": 796,
      "Ġdiffer": 797,
      "Ġwill": 798,
      "Ġperson": 799,
      "we": 800,
      "Ġgu": 801,
      "ember": 802,
      "Ġbl": 803,
      "Ġentre": 804,
      "Ġpa": 805,
      "Ġvery": 806,
      "ite": 807,
      "Ġover": 808,
      "Ġfam": 809,
      "Ġant": 810,
      "Ġelect": 811,
      "ild": 812,
      "Ġthese": 813,
      "ence": 814,
      "olog": 815,
      "az": 816,
      "Ġgre": 817,
      "Ġesp": 818,
      "inci": 819,
      "Ġ5": 820,
      "Ġmin": 821,
      "ec": 822,
      "Ġhel": 823,
      "gr": 824,
      "ve": 825,
      "Ġsa": 826,
      "cul": 827,
      "ral": 828,
      "ific": 829,
      "Ġbet": 830,
      "ne": 831,
      "ron": 832,
      "Ġimport": 833,
      "Ġeuro": 834,
      "ida": 835,
      "ous": 836,
      "Ġinclud": 837,
      "rib": 838,
      "ations": 839,
      "ays": 840,
      "cho": 841,
      "Ġdifferent": 842,
      "Ġprim": 843,
      "icos": 844,
      "Ġsm": 845,
      "Ġbu": 846,
      "Ġyears": 847,
      "iento": 848,
      "ould": 849,
      "Ġsur": 850,
      "Ġkill": 851,
      "Ġwork": 852,
      "Ġcal": 853,
      "Ġmod": 854,
      "Ġsc": 855,
      "ough": 856,
      "Ġ17": 857,
      "ĠÂ": 858,
      "ors": 859,
      "cu": 860,
      "Ġmake": 861,
      "Ġonly": 862,
      "ft": 863,
      "Ġking": 864,
      "Ġcr": 865,
      "Ġinv": 866,
      "ah": 867,
      "000": 868,
      "Ġpued": 869,
      "ually": 870,
      "vern": 871,
      "Ġpresident": 872,
      "Ġfin": 873,
      "ick": 874,
      "ict": 875,
      "min": 876,
      "Ġsus": 877,
      "Ġ198": 878,
      "Ġmet": 879,
      "ds": 880,
      "Ġha": 881,
      "Ġdef": 882,
      "Ġbeen": 883,
      "Ġconst": 884,
      "Ġpos": 885,
      "iÃ©n": 886,
      "Ġger": 887,
      "aciones": 888,
      "bl": 889,
      "go": 890,
      "Ġgovern": 891,
      "ÃŃs": 892,
      "icas": 893,
      "als": 894,
      "Ġ197": 895,
      "Ġshe": 896,
      "ff": 897,
      "ias": 898,
      "19": 899,
      "Ġrom": 900,
      "Ġif": 901,
      "vel": 902,
      "Ã©s": 903,
      "atur": 904,
      "imes": 905,
      "ĠaÃ±": 906,
      "ational": 907,
      "ca": 908,
      "Ġfue": 909,
      "Ġhum": 910,
      "Ġart": 911,
      "Ġhab": 912,
      "are": 913,
      "Ġvar": 914,
      "Ġcor": 915,
      "Ġprov": 916,
      "Ġdist": 917,
      "Ġhist": 918,
      "Ġsuch": 919,
      "ismo": 920,
      "Ġbrit": 921,
      "ons": 922,
      "ins": 923,
      "Ġ6": 924,
      "Ġair": 925,
      "ta": 926,
      "Ġ196": 927,
      "Ġsim": 928,
      "Ġuse": 929,
      "Ġbel": 930,
      "Ġmuch": 931,
      "Ġinst": 932,
      "Ġthree": 933,
      "ativ": 934,
      "Ġsouth": 935,
      "la": 936,
      "rans": 937,
      "ambiÃ©n": 938,
      "ublic": 939,
      "ital": 940,
      "\".": 941,
      "ents": 942,
      "Ġ7": 943,
      "ys": 944,
      "ĠtambiÃ©n": 945,
      "Ġcas": 946,
      "Ġgerman": 947,
      "Ġca": 948,
      "Ġtak": 949,
      "Ġduring": 950,
      "ition": 951,
      "Ġwrit": 952,
      "ries": 953,
      "endo": 954,
      "lish": 955,
      "Ġknown": 956,
      "Ãºn": 957,
      "ano": 958,
      "Ġlong": 959,
      "Ġseg": 960,
      "Ġnorth": 961,
      "round": 962,
      "Ġunivers": 963,
      "tle": 964,
      "Ġtrans": 965,
      "Ġprodu": 966,
      "urn": 967,
      "Ġmil": 968,
      "Ġcountry": 969,
      "Ġoc": 970,
      "Ġbecame": 971,
      "ert": 972,
      "Ġop": 973,
      "Ġsub": 974,
      "ics": 975,
      "angu": 976,
      "Ġstate": 977,
      "Ġatt": 978,
      "Ġeste": 979,
      "Ġget": 980,
      "Ġlarg": 981,
      "Ã©r": 982,
      "Ġval": 983,
      "Ġsoci": 984,
      "ana": 985,
      "gen": 986,
      "Ġalg": 987,
      "Ġeurope": 988,
      "Ġfour": 989,
      "Ġsup": 990,
      "Ġintern": 991,
      "Ġmill": 992,
      "erv": 993,
      "Ġfu": 994,
      "iÃ³": 995,
      "Ġci": 996,
      "omet": 997,
      "Ġ194": 998,
      "ond": 999,
      "ween": 1000,
      "rop": 1001,
      "Ġwhere": 1002,
      "antes": 1003,
      "Ġve": 1004,
      "pend": 1005,
      "Ġsal": 1006,
      "Ġstart": 1007,
      "ely": 1008,
      "Ġaut": 1009,
      "omb": 1010,
      "Ġreal": 1011,
      "Ġbetween": 1012,
      "Ġfound": 1013,
      "Ġ15": 1014,
      "Ġdec": 1015,
      "Ġespeci": 1016,
      "Ġnumber": 1017,
      "ower": 1018,
      "Ġlangu": 1019,
      "Ġbar": 1020,
      "Ġtem": 1021,
      "za": 1022,
      "Ġwhat": 1023,
      "Ġoften": 1024,
      "Ġend": 1025,
      "rough": 1026,
      "ino": 1027,
      "Ġext": 1028,
      "Ġhim": 1029,
      "Ġdr": 1030,
      "Ġge": 1031,
      "duc": 1032,
      "Ġsmall": 1033,
      "po": 1034,
      "pos": 1035,
      "ts": 1036,
      "Ġhigh": 1037,
      "eng": 1038,
      "Ġint": 1039,
      "lam": 1040,
      "Ġisland": 1041,
      "ced": 1042,
      "ble": 1043,
      "ury": 1044,
      "Ġyou": 1045,
      "ador": 1046,
      "onal": 1047,
      "Ġthen": 1048,
      "Ġarm": 1049,
      "ife": 1050,
      "Ġcult": 1051,
      "Ġwould": 1052,
      "ists": 1053,
      "ale": 1054,
      "ction": 1055,
      "Ġchang": 1056,
      "Ġagain": 1057,
      "old": 1058,
      "Ġconf": 1059,
      "ven": 1060,
      "igu": 1061,
      "ck": 1062,
      "iam": 1063,
      "Ġchar": 1064,
      "Ġ8": 1065,
      "Ġ16": 1066,
      "Ġever": 1067,
      "iones": 1068,
      "Ġgeneral": 1069,
      "iver": 1070,
      "ton": 1071,
      "Ġlater": 1072,
      "atch": 1073,
      "iet": 1074,
      "Ġprinci": 1075,
      "Ġmayor": 1076,
      "Ġspeci": 1077,
      "entes": 1078,
      "cess": 1079,
      "eros": 1080,
      "Ġ9": 1081,
      "Ġmen": 1082,
      "ail": 1083,
      "Ġu": 1084,
      "Ġii": 1085,
      "Ġusually": 1086,
      "aron": 1087,
      "Ġbat": 1088,
      "Ġsame": 1089,
      "ep": 1090,
      "ctor": 1091,
      "Ġprincip": 1092,
      "Ġbr": 1093,
      "fore": 1094,
      "Ġmusic": 1095,
      "no": 1096,
      "ase": 1097,
      "ames": 1098,
      "the": 1099,
      "Ġgovernment": 1100,
      "Ġesc": 1101,
      "ance": 1102,
      "itu": 1103,
      "Ġgroup": 1104,
      "uss": 1105,
      "Ġhelp": 1106,
      "Ġwest": 1107,
      "Ġorgan": 1108,
      "Ġplan": 1109,
      "ĠpaÃŃs": 1110,
      "Ġorig": 1111,
      "Ġenglish": 1112,
      "Ġsl": 1113,
      "Ġdem": 1114,
      "ward": 1115,
      "ÃŃn": 1116,
      "Ġdos": 1117,
      "stem": 1118,
      "ma": 1119,
      "ution": 1120,
      "Ġdesc": 1121,
      "ior": 1122,
      "Ġaust": 1123,
      "Ġfamil": 1124,
      "Ġtien": 1125,
      "emb": 1126,
      "Ġstud": 1127,
      "Ġesta": 1128,
      "Ġemp": 1129,
      "Ġdiv": 1130,
      "Ġplant": 1131,
      "Ġcountries": 1132,
      "Ġty": 1133,
      "ung": 1134,
      "acter": 1135,
      "Ġwater": 1136,
      "Ġdeb": 1137,
      "ample": 1138,
      "ĠespaÃ±": 1139,
      "ible": 1140,
      "Ġir": 1141,
      "Ġdest": 1142,
      "Ġ10": 1143,
      "ty": 1144,
      "Ġany": 1145,
      "ario": 1146,
      "Ġdisp": 1147,
      "Ġdon": 1148,
      "Ġmain": 1149,
      "ows": 1150,
      "Ġlead": 1151,
      "Ġfil": 1152,
      "ista": 1153,
      "erg": 1154,
      "Ġliv": 1155,
      "Ġsign": 1156,
      "almente": 1157,
      "Ġsystem": 1158,
      "ities": 1159,
      "ider": 1160,
      "Ġold": 1161,
      "Ġexample": 1162,
      "its": 1163,
      "iss": 1164,
      "bo": 1165,
      "Ġten": 1166,
      "Ġ195": 1167,
      "Ġsuper": 1168,
      "Ġbro": 1169,
      "Ġanim": 1170,
      "ium": 1171,
      "ock": 1172,
      "Ġunder": 1173,
      "Ġjoh": 1174,
      "Ġej": 1175,
      "lev": 1176,
      "red": 1177,
      "Ġpolit": 1178,
      "Ġbritish": 1179,
      "Ġeach": 1180,
      "Ġthrough": 1181,
      "oll": 1182,
      "Ġnov": 1183,
      "Ġ193": 1184,
      "Ġland": 1185,
      "Ġgra": 1186,
      "Ġfive": 1187,
      "Ġday": 1188,
      "Ġjust": 1189,
      "ather": 1190,
      "por": 1191,
      "cond": 1192,
      "cre": 1193,
      "Ġsobre": 1194,
      "Ġcommon": 1195,
      "omin": 1196,
      "Ġdesde": 1197,
      "Ġbefore": 1198,
      "leg": 1199,
      "par": 1200,
      "Ġecon": 1201,
      "ae": 1202,
      "Ġcast": 1203,
      "Ġoffic": 1204,
      "Ġdire": 1205,
      "Ġgran": 1206,
      "Ġexist": 1207,
      "ever": 1208,
      "Ġname": 1209,
      "iliz": 1210,
      "Ġaround": 1211,
      "Ġparte": 1212,
      "Ġdid": 1213,
      "Ġcapital": 1214,
      "Ġexp": 1215,
      "Ġcontin": 1216,
      "Ġtre": 1217,
      "Ġalb": 1218,
      "Ã©t": 1219,
      "Ġexpl": 1220,
      "aba": 1221,
      "Â»": 1222,
      "idos": 1223,
      "ines": 1224,
      "jo": 1225,
      "20": 1226,
      "ĠÃ¡": 1227,
      "let": 1228,
      "Ġpopular": 1229,
      "Ġsing": 1230,
      "ĠÂ«": 1231,
      "Ġwell": 1232,
      "iciÃ³n": 1233,
      "Ġsecond": 1234,
      "Ġlar": 1235,
      "iel": 1236,
      "ork": 1237,
      "Ġtrad": 1238,
      "Ġthings": 1239,
      "Ġnow": 1240,
      "ink": 1241,
      "xt": 1242,
      "cient": 1243,
      "Ġalgun": 1244,
      "ject": 1245,
      "Ġut": 1246,
      "rist": 1247,
      "pect": 1248,
      "ciones": 1249,
      "way": 1250,
      "asta": 1251,
      "Ġke": 1252,
      "Ġsist": 1253,
      "Ã³m": 1254,
      "Ġrepres": 1255,
      "ona": 1256,
      "Ġrem": 1257,
      "ody": 1258,
      "Ġbig": 1259,
      "Ġimportant": 1260,
      "Ġjohn": 1261,
      "Ġthough": 1262,
      "Ġsix": 1263,
      "Ġast": 1264,
      "ious": 1265,
      "Ġset": 1266,
      "udad": 1267,
      "Ġsw": 1268,
      "uev": 1269,
      "Ġref": 1270,
      "Ġstr": 1271,
      "Ġmund": 1272,
      "thing": 1273,
      "Ġpal": 1274,
      "Ġfun": 1275,
      "cia": 1276,
      "other": 1277,
      "âĢĵ": 1278,
      "ians": 1279,
      "\",": 1280,
      "Ġsomet": 1281,
      "Ġciudad": 1282,
      "Ġrev": 1283,
      "ating": 1284,
      "Ġloc": 1285,
      "urs": 1286,
      "cept": 1287,
      "ful": 1288,
      "ÃŃt": 1289,
      "til": 1290,
      "ĠestÃ¡": 1291,
      "Ġnear": 1292,
      "Ġevery": 1293,
      "Ġway": 1294,
      "ple": 1295,
      "Ġlaw": 1296,
      "dom": 1297,
      "Ġbus": 1298,
      "Ġearth": 1299,
      "Ġserv": 1300,
      "Ġinde": 1301,
      "Ġbeing": 1302,
      "br": 1303,
      "Ġlanguage": 1304,
      "Ġrelig": 1305,
      "Ġprogr": 1306,
      "ative": 1307,
      "Ġequ": 1308,
      "ax": 1309,
      "ature": 1310,
      "ages": 1311,
      "ision": 1312,
      "Ġjan": 1313,
      "Ġnational": 1314,
      "Ġrepresent": 1315,
      "aster": 1316,
      "Ġgreat": 1317,
      "sh": 1318,
      "Ġhowever": 1319,
      "Ġlit": 1320,
      "rench": 1321,
      "Ġ12": 1322,
      "itar": 1323,
      "li": 1324,
      "Ġins": 1325,
      "Ġanother": 1326,
      "Ġcontrol": 1327,
      "Ġer": 1328,
      "Ġcomput": 1329,
      "ms": 1330,
      "Ġsometimes": 1331,
      "Ġnatur": 1332,
      "Ġconsider": 1333,
      "Ġown": 1334,
      "las": 1335,
      "Ġband": 1336,
      "Ġpuede": 1337,
      "Ġsan": 1338,
      "Ġafr": 1339,
      "Ġhasta": 1340,
      "Ġproduc": 1341,
      "Ġhar": 1342,
      "Ġpero": 1343,
      "Ġeven": 1344,
      "Ġlive": 1345,
      "Ġcentury": 1346,
      "Ġrest": 1347,
      "Ġspe": 1348,
      "Ġbre": 1349,
      "Ġ14": 1350,
      "app": 1351,
      "iem": 1352,
      "ise": 1353,
      "anto": 1354,
      "Ġide": 1355,
      "Ġvol": 1356,
      "Ġfrench": 1357,
      "Ġchild": 1358,
      "Ġport": 1359,
      "ai": 1360,
      "cy": 1361,
      "Ġprop": 1362,
      "Ġpower": 1363,
      "Ġpartic": 1364,
      "Ġjul": 1365,
      "Ġagainst": 1366,
      "ento": 1367,
      "Ġsea": 1368,
      "Ġsince": 1369,
      "thern": 1370,
      "Ġpat": 1371,
      "Ġlarge": 1372,
      "ix": 1373,
      "Ġfar": 1374,
      "Ġden": 1375,
      "ria": 1376,
      "Ġprote": 1377,
      "Ġmeans": 1378,
      "ĠaÃ±os": 1379,
      "amed": 1380,
      "ues": 1381,
      "Ġmag": 1382,
      "Ġboth": 1383,
      "Ġwhile": 1384,
      "Ġret": 1385,
      "ama": 1386,
      "ides": 1387,
      "Ġgrand": 1388,
      "Ġpublic": 1389,
      "Ġwom": 1390,
      "Ġchrist": 1391,
      "Ġcould": 1392,
      "he": 1393,
      "Ġorigin": 1394,
      "Ġsistem": 1395,
      "Ġarea": 1396,
      "amm": 1397,
      "Ġengland": 1398,
      "Ġsaid": 1399,
      "Ġindepend": 1400,
      "illa": 1401,
      "ress": 1402,
      "Ġshow": 1403,
      "Ġscho": 1404,
      "Ġ192": 1405,
      "Ġgood": 1406,
      "ruct": 1407,
      "ivo": 1408,
      "Ġright": 1409,
      "Ġuntil": 1410,
      "ased": 1411,
      "Ġword": 1412,
      "arrol": 1413,
      "Ġdoes": 1414,
      "Ġbecom": 1415,
      "Ġ'": 1416,
      "Ġrad": 1417,
      "Ġotros": 1418,
      "Ġimp": 1419,
      "Ġjap": 1420,
      "Ġwant": 1421,
      "Ġrele": 1422,
      "Ġnuev": 1423,
      "Ġdesarrol": 1424,
      "Ġpen": 1425,
      "Ġbest": 1426,
      "Ġleg": 1427,
      "Ã©l": 1428,
      "na": 1429,
      "Ġschool": 1430,
      "Ġstill": 1431,
      "Ġhuman": 1432,
      "ning": 1433,
      "ita": 1434,
      "une": 1435,
      "ting": 1436,
      "Ġcaus": 1437,
      "ried": 1438,
      "Ġciv": 1439,
      "oph": 1440,
      "ator": 1441,
      "Ġfrance": 1442,
      "ize": 1443,
      "ats": 1444,
      "ister": 1445,
      "lu": 1446,
      "Ġlife": 1447,
      "ĠnÃº": 1448,
      "Ġ11": 1449,
      "acional": 1450,
      "uest": 1451,
      "ÃŃan": 1452,
      "idades": 1453,
      "Ġroman": 1454,
      "Ġback": 1455,
      "Ġadd": 1456,
      "Ġrecord": 1457,
      "Ġhan": 1458,
      "ga": 1459,
      "Ġvis": 1460,
      "Ġlat": 1461,
      "Ġbelie": 1462,
      "Ġproble": 1463,
      "Ġdurante": 1464,
      "Ġx": 1465,
      "Ġred": 1466,
      "los": 1467,
      "Ġ191": 1468,
      "els": 1469,
      "elf": 1470,
      "bol": 1471,
      "Ġpas": 1472,
      "Ġya": 1473,
      "ik": 1474,
      "Ġfre": 1475,
      "ets": 1476,
      "day": 1477,
      "enta": 1478,
      "ÃŃas": 1479,
      "Ġcur": 1480,
      "ito": 1481,
      "urch": 1482,
      "Ġruss": 1483,
      "Ġoper": 1484,
      "ract": 1485,
      "Ġcomun": 1486,
      "ara": 1487,
      "Ġale": 1488,
      "urg": 1489,
      "Ã¡t": 1490,
      "can": 1491,
      "Ġ.": 1492,
      "Ġlight": 1493,
      "Ġhol": 1494,
      "ental": 1495,
      "Ġmodern": 1496,
      "Ġforma": 1497,
      "Ġcop": 1498,
      "be": 1499,
      "Ġneed": 1500,
      "iod": 1501,
      "ares": 1502,
      "empl": 1503,
      "Ġkingdom": 1504,
      "cer": 1505,
      "Ġresult": 1506,
      "ÃŃcul": 1507,
      "Ġenerg": 1508,
      "Ġcamp": 1509,
      "Ġsong": 1510,
      "Ġplace": 1511,
      "eron": 1512,
      "Ġcell": 1513,
      "Ġlu": 1514,
      "Ġsever": 1515,
      "Ġang": 1516,
      "ved": 1517,
      "Ġital": 1518,
      "unto": 1519,
      "Ġhistor": 1520,
      "led": 1521,
      "Ġphil": 1522,
      "ley": 1523,
      "Ġtip": 1524,
      "fect": 1525,
      "Ġmarch": 1526,
      "Ġtoday": 1527,
      "ato": 1528,
      "Ġindust": 1529,
      "Ġrun": 1530,
      "Ġbattle": 1531,
      "Ġlib": 1532,
      "aria": 1533,
      "ril": 1534,
      "ars": 1535,
      "Ġav": 1536,
      "Ġ13": 1537,
      "Ġje": 1538,
      "ains": 1539,
      "Ġllam": 1540,
      "Ġbody": 1541,
      "Ġfoll": 1542,
      "Ġgod": 1543,
      "Ġutiliz": 1544,
      "aces": 1545,
      "Ġriver": 1546,
      "bert": 1547,
      "Ġterrit": 1548,
      "Ġgiv": 1549,
      "cent": 1550,
      "Ġstarted": 1551,
      "Ġwin": 1552,
      "Ġet": 1553,
      "cto": 1554,
      "Ġarch": 1555,
      "Ġbir": 1556,
      "Ġfamous": 1557,
      "Ġcual": 1558,
      "Ġjapan": 1559,
      "Ġtiene": 1560,
      "Ġyork": 1561,
      "ula": 1562,
      "Ġmillion": 1563,
      "Ġmater": 1564,
      "Ġpod": 1565,
      "ata": 1566,
      "ark": 1567,
      "ement": 1568,
      "Ġbuild": 1569,
      "Ġeconom": 1570,
      "uary": 1571,
      "Ġtur": 1572,
      "ÃŃst": 1573,
      "com": 1574,
      "Ġprot": 1575,
      "Ġmount": 1576,
      "Ġlargest": 1577,
      "Ġoff": 1578,
      "Ġsk": 1579,
      "ood": 1580,
      "Ġcub": 1581,
      "Ġvers": 1582,
      "Ġpopul": 1583,
      "ele": 1584,
      "Ġconv": 1585,
      "ology": 1586,
      "Ġseven": 1587,
      "Ġdied": 1588,
      "Ġdispatch": 1589,
      "Ġcono": 1590,
      "Ġlast": 1591,
      "Ġcat": 1592,
      "Ġgeor": 1593,
      "Ġtal": 1594,
      "Ġseveral": 1595,
      "Ġlet": 1596,
      "Ġdown": 1597,
      "med": 1598,
      "uy": 1599,
      "elo": 1600,
      "ll": 1601,
      "Ġste": 1602,
      "Ġincluding": 1603,
      "Ġdifer": 1604,
      "Ġcommun": 1605,
      "Ġbeg": 1606,
      "Ġsocial": 1607,
      "ĠasÃŃ": 1608,
      "Ġwon": 1609,
      "ij": 1610,
      "Ġrepublic": 1611,
      "Ġsent": 1612,
      "Ġ,": 1613,
      "Ġactiv": 1614,
      "Ġunion": 1615,
      "uv": 1616,
      "Ġsuc": 1617,
      "arse": 1618,
      "Ġdeath": 1619,
      "ela": 1620,
      "Ġchurch": 1621,
      "bs": 1622,
      "Ġgl": 1623,
      "Ġemb": 1624,
      "Ġyour": 1625,
      "ician": 1626,
      "Ġbecome": 1627,
      "ger": 1628,
      "Ġfamily": 1629,
      "ene": 1630,
      "Ġtake": 1631,
      "ures": 1632,
      "Ġjanuary": 1633,
      "Ġeast": 1634,
      "ional": 1635,
      "Ġdonde": 1636,
      "Ġaun": 1637,
      "Ġmor": 1638,
      "Ġelement": 1639,
      "ball": 1640,
      "ves": 1641,
      "ross": 1642,
      "Ġeight": 1643,
      "Ġmemb": 1644,
      "amiento": 1645,
      "Ġvi": 1646,
      "Ġmass": 1647,
      "Ġfollow": 1648,
      "mo": 1649,
      "Ġhapp": 1650,
      "Ġchina": 1651,
      "Ġinform": 1652,
      "do": 1653,
      "Ġarmy": 1654,
      "ua": 1655,
      "ÃŃm": 1656,
      "adores": 1657,
      "Ġminister": 1658,
      "Ġmid": 1659,
      "Ġmean": 1660,
      "Ġgener": 1661,
      "Ġkilling": 1662,
      "Ġgermany": 1663,
      "iendo": 1664,
      "Ġpass": 1665,
      "Ġcost": 1666,
      "Ġinclude": 1667,
      "Ã³g": 1668,
      "Ġrock": 1669,
      "Ġpobl": 1670,
      "ison": 1671,
      "Ġmakes": 1672,
      "Ġlot": 1673,
      "ped": 1674,
      "Ġthir": 1675,
      "Ġmuy": 1676,
      "Ġfr": 1677,
      "ola": 1678,
      "Ġmovie": 1679,
      "Ġvir": 1680,
      "ĠaÃ±o": 1681,
      "oy": 1682,
      "Ġsex": 1683,
      "Ġpresent": 1684,
      "Ġnamed": 1685,
      "Ġearly": 1686,
      "velop": 1687,
      "Ġmaj": 1688,
      "Ġparts": 1689,
      "encias": 1690,
      "Ġalbum": 1691,
      "Ġmy": 1692,
      "Ġuno": 1693,
      "son": 1694,
      "iente": 1695,
      "Ġfood": 1696,
      "Ġprof": 1697,
      "den": 1698,
      "Ġra": 1699,
      "Ġnorm": 1700,
      "Ġbecomes": 1701,
      "Ġsolo": 1702,
      "Ġmat": 1703,
      "thers": 1704,
      "Ġarg": 1705,
      "Ġpueden": 1706,
      "ner": 1707,
      "Ġleng": 1708,
      "Ġejempl": 1709,
      "Ġcivil": 1710,
      "Ġteam": 1711,
      "Ġkind": 1712,
      "car": 1713,
      "Ġcir": 1714,
      "Ġmer": 1715,
      "ades": 1716,
      "Ġdevelop": 1717,
      "Ġgree": 1718,
      "Ġera": 1719,
      "Ġeg": 1720,
      "Ġsept": 1721,
      "Ġtro": 1722,
      "Ġcolor": 1723,
      "tal": 1724,
      "ws": 1725,
      "Ġactual": 1726,
      "Ġaunque": 1727,
      "Ġsov": 1728,
      "atos": 1729,
      "Ġmal": 1730,
      "Ġbal": 1731,
      "Ġperiod": 1732,
      "ote": 1733,
      "Ġtoge": 1734,
      "Ġblack": 1735,
      "Ġtogether": 1736,
      "Ġcam": 1737,
      "Ġgame": 1738,
      "Ġalm": 1739,
      "Ġestud": 1740,
      "Ġaustral": 1741,
      "Ġcer": 1742,
      "Ġmajor": 1743,
      "Ġhouse": 1744,
      "Ġtemper": 1745,
      "ason": 1746,
      "Ġass": 1747,
      "Ġara": 1748,
      "Ġban": 1749,
      "Ġsee": 1750,
      "aves": 1751,
      "Ġuniversity": 1752,
      "Ġdecl": 1753,
      "Ġcuando": 1754,
      "pre": 1755,
      "Ġcada": 1756,
      "Ġestos": 1757,
      "Ġhay": 1758,
      "Ġkilled": 1759,
      "form": 1760,
      "Ġclim": 1761,
      "Ġcab": 1762,
      "Ġexper": 1763,
      "Ġox": 1764,
      "olution": 1765,
      "Ġmc": 1766,
      "Ġcompan": 1767,
      "Ġput": 1768,
      "Ġcentral": 1769,
      "ove": 1770,
      "Ġphys": 1771,
      "Ġsimil": 1772,
      "Ġchem": 1773,
      "cim": 1774,
      "me": 1775,
      "Ġcame": 1776,
      "hip": 1777,
      "mit": 1778,
      "ena": 1779,
      "ĠnÃºm": 1780,
      "Ġsch": 1781,
      "cuent": 1782,
      "Ġaug": 1783,
      "Ġcolon": 1784,
      "Ġpoint": 1785,
      "Ġnine": 1786,
      "Ġmad": 1787,
      "âĢĻ": 1788,
      "Ġreach": 1789,
      "Ġchildren": 1790,
      "ull": 1791,
      "ogra": 1792,
      "Ġtelev": 1793,
      "Ġpet": 1794,
      "idas": 1795,
      "ologÃŃa": 1796,
      "wh": 1797,
      "Ġparty": 1798,
      "Ġorganiz": 1799,
      "urt": 1800,
      "ural": 1801,
      "anish": 1802,
      "Ġ%": 1803,
      "oney": 1804,
      "Ġtimes": 1805,
      "Ġsold": 1806,
      "ted": 1807,
      "Ġamerica": 1808,
      "Ġocc": 1809,
      "Ġsistema": 1810,
      "Ġbra": 1811,
      "Ġdise": 1812,
      "cle": 1813,
      "Ġusing": 1814,
      "Ġsupport": 1815,
      "Ġfact": 1816,
      "istas": 1817,
      "Ġprovinci": 1818,
      "cha": 1819,
      "ument": 1820,
      "Ġbook": 1821,
      "ield": 1822,
      "Ġfew": 1823,
      "Ġnatural": 1824,
      "ora": 1825,
      "Ġwind": 1826,
      "Ġtown": 1827,
      "Ġ186": 1828,
      "Ġotras": 1829,
      "tim": 1830,
      "inos": 1831,
      "Ġmundo": 1832,
      "Ġpopulation": 1833,
      "Ġinflu": 1834,
      "ps": 1835,
      "Ġborn": 1836,
      "Ġempire": 1837,
      "Ã³r": 1838,
      "ieron": 1839,
      "bel": 1840,
      "Ġhome": 1841,
      "Ġbase": 1842,
      "Ġlook": 1843,
      "Ġzero": 1844,
      "ined": 1845,
      "Ġcomple": 1846,
      "Ġrealiz": 1847,
      "Ġprogram": 1848,
      "ĠespaÃ±a": 1849,
      "Ġload": 1850,
      "Ġobs": 1851,
      "Ġreleased": 1852,
      "Ġrul": 1853,
      "Ġbegan": 1854,
      "Ġdesp": 1855,
      "18": 1856,
      "Ġestado": 1857,
      "Ġhistory": 1858,
      "Ġmic": 1859,
      "Ġ190": 1860,
      "Ġtest": 1861,
      "mer": 1862,
      "Ġ30": 1863,
      "ilt": 1864,
      "Ġfem": 1865,
      "Ġda": 1866,
      "ajo": 1867,
      "itud": 1868,
      "uras": 1869,
      "Ġacc": 1870,
      "Ã¡l": 1871,
      "jet": 1872,
      "Ġcin": 1873,
      "Ġopen": 1874,
      "cido": 1875,
      "Ġmi": 1876,
      "Ġclass": 1877,
      "..": 1878,
      "Ġless": 1879,
      "atic": 1880,
      "ba": 1881,
      "dic": 1882,
      "Ġhy": 1883,
      "arch": 1884,
      "ombre": 1885,
      "Ġtres": 1886,
      "Ã©c": 1887,
      "of": 1888,
      "Ġscot": 1889,
      "Ãºl": 1890,
      "Ġwilliam": 1891,
      "Ġdecember": 1892,
      "inas": 1893,
      "Ġprime": 1894,
      "Ġhead": 1895,
      "oks": 1896,
      "ash": 1897,
      "uck": 1898,
      "Ġaugust": 1899,
      "yn": 1900,
      "Ġtiem": 1901,
      "lood": 1902,
      "Ġindia": 1903,
      "Ġsay": 1904,
      "Ġig": 1905,
      "ared": 1906,
      "emÃ¡s": 1907,
      "Ġtyp": 1908,
      "Ġseries": 1909,
      "Ġtri": 1910,
      "ops": 1911,
      "ĠademÃ¡s": 1912,
      "Ġma": 1913,
      "Ġ&": 1914,
      "Ġlim": 1915,
      "cis": 1916,
      "bru": 1917,
      "Ġsepar": 1918,
      "Ġ25": 1919,
      ".\"": 1920,
      "Ġder": 1921,
      "Ġwhite": 1922,
      "Ġpap": 1923,
      "ants": 1924,
      "Ġprimera": 1925,
      "Ġspecial": 1926,
      "Ġcamb": 1927,
      "iment": 1928,
      "Ġhard": 1929,
      "Ġur": 1930,
      "Ġthought": 1931,
      "Ġtom": 1932,
      "Ġdefe": 1933,
      "Ġrefer": 1934,
      "Ġlleg": 1935,
      "Ã³l": 1936,
      "'m": 1937,
      "Ġleft": 1938,
      "Ġresp": 1939,
      "Ġterritor": 1940,
      "Ġdivers": 1941,
      "Ġencuent": 1942,
      "Ġtodo": 1943,
      "Ġfund": 1944,
      "bruary": 1945,
      "Ġgas": 1946,
      "ished": 1947,
      "Ġ189": 1948,
      "Ġgrow": 1949,
      "Ġlond": 1950,
      "Ġbomb": 1951,
      "Ġshort": 1952,
      "Ġapril": 1953,
      "Ġgrup": 1954,
      "Ġmaking": 1955,
      "Ġprimer": 1956,
      "Ġpot": 1957,
      "Ġmot": 1958,
      "itary": 1959,
      "Ġprev": 1960,
      "Ġspecies": 1961,
      "Ġsun": 1962,
      "Ġnovember": 1963,
      "Ġalgunos": 1964,
      "ĠgÃ©n": 1965,
      "alth": 1966,
      "Ġdisco": 1967,
      "ĠsegÃºn": 1968,
      "Ġrich": 1969,
      "Ġsum": 1970,
      "Ġeduc": 1971,
      "ake": 1972,
      "Ġshould": 1973,
      "Ġproduct": 1974,
      "Ġaz": 1975,
      "Ġthose": 1976,
      "Ġchange": 1977,
      "ann": 1978,
      "ancia": 1979,
      "Ġcrist": 1980,
      "Ġsimilar": 1981,
      "Ġdep": 1982,
      "iva": 1983,
      "Ġspace": 1984,
      "Ġsym": 1985,
      "Ġjuly": 1986,
      "Ġfoot": 1987,
      "Ġantigu": 1988,
      "aving": 1989,
      "Ġanimals": 1990,
      "Ġislands": 1991,
      "Ġdemoc": 1992,
      "Ġdirect": 1993,
      "Ġejemplo": 1994,
      "Ġfebruary": 1995,
      "Ġhand": 1996,
      "Ġforces": 1997,
      "pro": 1998,
      "Ġmoney": 1999,
      "Ġoce": 2000,
      "Ġbud": 2001,
      "Ġfed": 2002,
      "Ãºbl": 2003,
      "Ġtotal": 2004,
      "Ã©rica": 2005,
      "ender": 2006,
      "Ġappe": 2007,
      "Ġliving": 2008,
      "ince": 2009,
      "Ġgot": 2010,
      "Ġtop": 2011,
      "ierra": 2012,
      "Ġinternational": 2013,
      "not": 2014,
      "Ġothers": 2015,
      "Ã¡ct": 2016,
      "Ġep": 2017,
      "Ġaqu": 2018,
      "Ġhal": 2019,
      "Ġcomputer": 2020,
      "ness": 2021,
      "ught": 2022,
      "ĠnÃºmero": 2023,
      "Ġwords": 2024,
      "Ġtreat": 2025,
      "ute": 2026,
      "cil": 2027,
      "aban": 2028,
      "ĠpoblaciÃ³n": 2029,
      "Ġscient": 2030,
      "Ġfind": 2031,
      "for": 2032,
      "Ġtanto": 2033,
      "ucle": 2034,
      "Ġmembers": 2035,
      "Ġcreated": 2036,
      "âĢĶ": 2037,
      "Ġwomen": 2038,
      "ctober": 2039,
      "gest": 2040,
      "Ġlug": 2041,
      "Ã¼": 2042,
      "Ġgames": 2043,
      "imiento": 2044,
      "Ġstrong": 2045,
      "Ġproces": 2046,
      "Ġseptember": 2047,
      "Ġsant": 2048,
      "Ġmust": 2049,
      "Ġsuccess": 2050,
      "aliz": 2051,
      "Ġsoviet": 2052,
      "ivos": 2053,
      "bon": 2054,
      "xim": 2055,
      "Ġwritten": 2056,
      "Ġcath": 2057,
      "Ġjune": 2058,
      "cont": 2059,
      "Ġlondon": 2060,
      "yl": 2061,
      "ĠestÃ¡n": 2062,
      "Ġtipo": 2063,
      "Ġknow": 2064,
      "Ġship": 2065,
      "uer": 2066,
      "Ġhen": 2067,
      "Ġgal": 2068,
      "ways": 2069,
      "Ġattack": 2070,
      "ense": 2071,
      "Ġrate": 2072,
      "Ġthink": 2073,
      "row": 2074,
      "Ġyoung": 2075,
      "olÃ³g": 2076,
      "Ġstar": 2077,
      "Ġworks": 2078,
      ".,": 2079,
      "Ġwithout": 2080,
      "Ġbuilt": 2081,
      "Ġnorthern": 2082,
      "gar": 2083,
      "uÃ©s": 2084,
      "Ġdan": 2085,
      "Ġamb": 2086,
      "Ġpel": 2087,
      "Ġpie": 2088,
      "Ãºs": 2089,
      "air": 2090,
      "Ġfall": 2091,
      "cciÃ³n": 2092,
      "Ġbien": 2093,
      "Ġdestac": 2094,
      "cos": 2095,
      "uciÃ³n": 2096,
      "Ġsound": 2097,
      "rent": 2098,
      "by": 2099,
      "Ġdu": 2100,
      "ania": 2101,
      "Ġbill": 2102,
      "Ġfire": 2103,
      "aje": 2104,
      "ertain": 2105,
      "Ġpolitician": 2106,
      "Ġtype": 2107,
      "Ġsomething": 2108,
      "ierno": 2109,
      "Ġspanish": 2110,
      "Ġdays": 2111,
      "Ġallow": 2112,
      "Ġespecies": 2113,
      "Ġtelevision": 2114,
      "Ġclos": 2115,
      "ders": 2116,
      "cion": 2117,
      "Ġage": 2118,
      "Ġgeorge": 2119,
      "ode": 2120,
      "argo": 2121,
      "ney": 2122,
      "Ġpick": 2123,
      "Ġenergy": 2124,
      "iles": 2125,
      "ware": 2126,
      "Ġnucle": 2127,
      "Ġoctober": 2128,
      "eles": 2129,
      "ound": 2130,
      "irm": 2131,
      "Ġhot": 2132,
      "ientos": 2133,
      "bor": 2134,
      "Ġtras": 2135,
      "Ġnacional": 2136,
      "Ġneg": 2137,
      "Ġobject": 2138,
      "ĠÃ©": 2139,
      "Ġcomb": 2140,
      "omas": 2141,
      "Ġsegund": 2142,
      "ned": 2143,
      "acks": 2144,
      "Ġline": 2145,
      "umb": 2146,
      "Ġestas": 2147,
      "Ġdesign": 2148,
      "Ġtiempo": 2149,
      "Ġdev": 2150,
      "Ġwestern": 2151,
      "Ġtoo": 2152,
      "Ġaward": 2153,
      "Ġdepend": 2154,
      "Ġfree": 2155,
      "Ġconstitu": 2156,
      "Ġobserv": 2157,
      "iter": 2158,
      "ured": 2159,
      "yle": 2160,
      "ush": 2161,
      "Ġreci": 2162,
      "Ġinc": 2163,
      "rie": 2164,
      "Ġmonth": 2165,
      "Ġfight": 2166,
      "atro": 2167,
      "acion": 2168,
      "Ġdescrib": 2169,
      "200": 2170,
      "Ġnext": 2171,
      "Ġdefin": 2172,
      "Ġeuropean": 2173,
      "Ġembargo": 2174,
      "50": 2175,
      "ler": 2176,
      "Ġ100": 2177,
      "ival": 2178,
      "Ġmilitary": 2179,
      "Ġdeter": 2180,
      "12": 2181,
      "Ġled": 2182,
      "Ġ188": 2183,
      "ington": 2184,
      "Ġjud": 2185,
      "Ġstudy": 2186,
      "Ġvez": 2187,
      "pa": 2188,
      "Ġturn": 2189,
      "Ġvict": 2190,
      "Ġcolle": 2191,
      "ya": 2192,
      "erci": 2193,
      "Ġterm": 2194,
      "ogr": 2195,
      "Ġafrica": 2196,
      "Ġsig": 2197,
      "ices": 2198,
      "istan": 2199,
      "Ġcapt": 2200,
      "Ġorder": 2201,
      "Ãºltim": 2202,
      "cir": 2203,
      "10": 2204,
      "Ġnorte": 2205,
      "Ġcontinu": 2206,
      "Ġafrican": 2207,
      "Ġay": 2208,
      "Ġcome": 2209,
      "Ġrecog": 2210,
      "rote": 2211,
      "Ġcities": 2212,
      "ientras": 2213,
      "Ġtienen": 2214,
      "cret": 2215,
      "Ġmismo": 2216,
      "Ġtook": 2217,
      "Ġguer": 2218,
      "Ġkeep": 2219,
      "mas": 2220,
      "Ġcoast": 2221,
      "Ġgob": 2222,
      "ius": 2223,
      "Ġplaces": 2224,
      "Ġchemical": 2225,
      "Ġdivid": 2226,
      "Ġsido": 2227,
      "Ġbased": 2228,
      "Ġadv": 2229,
      "Ġlanguages": 2230,
      "Ġmur": 2231,
      "Ġeff": 2232,
      "etic": 2233,
      "ĠÃºltim": 2234,
      "Ġmientras": 2235,
      "Ġbot": 2236,
      "oms": 2237,
      "ulas": 2238,
      "Ġmedic": 2239,
      "Ġhaci": 2240,
      "Ġpolitical": 2241,
      "Ġmac": 2242,
      "Ġfueron": 2243,
      "Ġportug": 2244,
      "born": 2245,
      "Ġpubl": 2246,
      "Ġwent": 2247,
      "Ġleader": 2248,
      "ii": 2249,
      "Ġcomes": 2250,
      "Ġradio": 2251,
      "Ġmich": 2252,
      "Ġtrav": 2253,
      "Ġocean": 2254,
      "ked": 2255,
      "Ġarte": 2256,
      "Ġlear": 2257,
      "Ġregion": 2258,
      "bers": 2259,
      "dle": 2260,
      "Ġplayed": 2261,
      "Ġpain": 2262,
      "Ġfif": 2263,
      "Ġfather": 2264,
      "ĠdespuÃ©s": 2265,
      "uel": 2266,
      "Ġsci": 2267,
      "Ġhit": 2268,
      "Ġalt": 2269,
      "cimiento": 2270,
      "Ġdra": 2271,
      "Ġmas": 2272,
      "Ġalmost": 2273,
      "Ġsitu": 2274,
      "read": 2275,
      "Ġstand": 2276,
      "Ġmont": 2277,
      "Ġcalif": 2278,
      "ĠcÃ©l": 2279,
      "Ġhom": 2280,
      "oca": 2281,
      "Ġmaterial": 2282,
      "af": 2283,
      "lin": 2284,
      "Ġnav": 2285,
      "Ġ24": 2286,
      "Ġeas": 2287,
      "Ġstop": 2288,
      "tern": 2289,
      "Ġcaracter": 2290,
      "Ġcant": 2291,
      "Ġnombre": 2292,
      "Ġru": 2293,
      "Ġfish": 2294,
      "ague": 2295,
      "ĠÂ¿": 2296,
      "ily": 2297,
      "iana": 2298,
      "ĠpolÃŃt": 2299,
      "Ġber": 2300,
      "Ġmult": 2301,
      "isiÃ³n": 2302,
      "âĢĿ": 2303,
      "Ġcele": 2304,
      "Ġsigu": 2305,
      "amer": 2306,
      "ĠâĢľ": 2307,
      "Ġmedi": 2308,
      "Ġhor": 2309,
      "Ġinic": 2310,
      "Ġcompos": 2311,
      "Ġspeak": 2312,
      "zo": 2313,
      "Ġgiven": 2314,
      "Ġread": 2315,
      "Ġsoft": 2316,
      "Ġidea": 2317,
      "Ġmun": 2318,
      "plic": 2319,
      "ount": 2320,
      "ring": 2321,
      "Ġcle": 2322,
      "ĠpaÃŃses": 2323,
      "gos": 2324,
      "oma": 2325,
      "odo": 2326,
      "riend": 2327,
      "Ġhenry": 2328,
      "Ġ0": 2329,
      "Ġside": 2330,
      "Ġgold": 2331,
      "Ġformer": 2332,
      "Ġbi": 2333,
      "Ġmedia": 2334,
      "Ġdiscover": 2335,
      "uso": 2336,
      "our": 2337,
      "rar": 2338,
      "Ġgroups": 2339,
      "Ġthird": 2340,
      "Ġfootball": 2341,
      "au": 2342,
      "osa": 2343,
      "Ġforce": 2344,
      "Ġtodos": 2345,
      "Ġrece": 2346,
      "Ġ187": 2347,
      "ites": 2348,
      "Ġestados": 2349,
      "ases": 2350,
      "Ġol": 2351,
      "Ġkm": 2352,
      "iales": 2353,
      "xico": 2354,
      "Ġtit": 2355,
      "Ġwrote": 2356,
      "Ġcond": 2357,
      "ientes": 2358,
      "Ġfer": 2359,
      "ago": 2360,
      "astern": 2361,
      "ograph": 2362,
      "Ġcaliforn": 2363,
      "king": 2364,
      "Ġdomin": 2365,
      "Ġalong": 2366,
      "Ġkore": 2367,
      "Ġjames": 2368,
      "Ġ2006": 2369,
      "ead": 2370,
      "ja": 2371,
      "Ġwal": 2372,
      "Ġ21": 2373,
      "col": 2374,
      "Ġcla": 2375,
      "Ġ2000": 2376,
      "Ġevent": 2377,
      "Ġaustralia": 2378,
      "Ġlugar": 2379,
      "ban": 2380,
      "ey": 2381,
      "mon": 2382,
      "Ġaway": 2383,
      "Ġbord": 2384,
      "Ġeat": 2385,
      "Ġcarbon": 2386,
      "uch": 2387,
      "Ġlist": 2388,
      "Ġstre": 2389,
      "Ġcanad": 2390,
      "ples": 2391,
      "Ġdent": 2392,
      "ories": 2393,
      "Ġconn": 2394,
      "Ġatl": 2395,
      "iness": 2396,
      "Ġliber": 2397,
      "Ġgobierno": 2398,
      "side": 2399,
      "ized": 2400,
      "Ġetc": 2401,
      "Ġsqu": 2402,
      "Ġintro": 2403,
      "21": 2404,
      "Ġpan": 2405,
      "arios": 2406,
      "Ġblood": 2407,
      "Ġ2005": 2408,
      "Ġemper": 2409,
      "Ġnumbers": 2410,
      "Ġtypes": 2411,
      "lands": 2412,
      "agan": 2413,
      "uan": 2414,
      "Ġincre": 2415,
      "Ġsem": 2416,
      "ĠlÃŃ": 2417,
      "Ġ2011": 2418,
      "Ġofficial": 2419,
      "Ġmiddle": 2420,
      ".)": 2421,
      "Ġrequ": 2422,
      "Ġobjet": 2423,
      "Ġlocal": 2424,
      "Ġtrib": 2425,
      "ilidad": 2426,
      "Ġcannot": 2427,
      "Ġcalifornia": 2428,
      "Ġesto": 2429,
      "Ġlou": 2430,
      "Ġplanet": 2431,
      "vers": 2432,
      "Ġ2010": 2433,
      "Ġhold": 2434,
      "Ġcharles": 2435,
      "ka": 2436,
      "Ġwanted": 2437,
      "Ġgrandes": 2438,
      "Ġcurrent": 2439,
      "Ġdi": 2440,
      "Ġrecon": 2441,
      "Ġancient": 2442,
      "Ġcanada": 2443,
      "cal": 2444,
      "eno": 2445,
      "Ġsn": 2446,
      "though": 2447,
      "Ġsil": 2448,
      "Ġmath": 2449,
      "ange": 2450,
      "Ġfilm": 2451,
      "Ġhappen": 2452,
      "Ġcompany": 2453,
      "sp": 2454,
      "idge": 2455,
      "Ã¡m": 2456,
      "Ġsou": 2457,
      "Ġamount": 2458,
      "Ġdesarroll": 2459,
      "Ġrevolution": 2460,
      "nam": 2461,
      "Ġfinal": 2462,
      "ĠâĢĶ": 2463,
      "Ġgreen": 2464,
      "ĠmayorÃŃa": 2465,
      "ived": 2466,
      "ÃŃo": 2467,
      "Ġprotest": 2468,
      "igo": 2469,
      "Ġarr": 2470,
      "emat": 2471,
      "Ġalgunas": 2472,
      "Ġinstead": 2473,
      "Ġmillones": 2474,
      "Ġmagn": 2475,
      "ze": 2476,
      "Ġing": 2477,
      "ots": 2478,
      "Ġ2014": 2479,
      "Ġincluy": 2480,
      "Ġplayer": 2481,
      "Ġdesarrollo": 2482,
      "itions": 2483,
      "Ġye": 2484,
      "ques": 2485,
      "Ġpress": 2486,
      "ford": 2487,
      "Ġcy": 2488,
      "Ġbur": 2489,
      "Ġconnect": 2490,
      "Ġdie": 2491,
      "Ġdisc": 2492,
      "Ġcel": 2493,
      "Ġmeas": 2494,
      "Ġwee": 2495,
      "Ġwash": 2496,
      "ificaciÃ³n": 2497,
      "eth": 2498,
      "rÃ³": 2499,
      "Ġbacter": 2500,
      "Ġmove": 2501,
      "oria": 2502,
      "Ġrain": 2503,
      "ete": 2504,
      "Ġestable": 2505,
      "Ġbras": 2506,
      "Ġfriend": 2507,
      "iano": 2508,
      "itect": 2509,
      "ex": 2510,
      "Ġmos": 2511,
      "Ġnon": 2512,
      "Ġmoved": 2513,
      "Ġtrab": 2514,
      "ulo": 2515,
      "Ġinvent": 2516,
      "Ġtakes": 2517,
      "Ġdemocr": 2518,
      "mos": 2519,
      "Ġident": 2520,
      "Ġmiss": 2521,
      "teri": 2522,
      "Ġrespect": 2523,
      "queÃ±": 2524,
      "Ġtell": 2525,
      "Ġstat": 2526,
      "Ġposs": 2527,
      "Ġhabit": 2528,
      "Ġgreek": 2529,
      "Ġlittle": 2530,
      "Ġcomunidad": 2531,
      "cel": 2532,
      "itos": 2533,
      "Ġliter": 2534,
      "Ġgive": 2535,
      "burg": 2536,
      "Ġtan": 2537,
      "Ġchin": 2538,
      "Ġmej": 2539,
      "Ġsouthern": 2540,
      "15": 2541,
      "Ġmes": 2542,
      "Ġmem": 2543,
      "Ġqueen": 2544,
      "Ġgovernor": 2545,
      "get": 2546,
      "Ġos": 2547,
      "key": 2548,
      "Ġ2008": 2549,
      "minist": 2550,
      "Ġconfirm": 2551,
      "Ġhacia": 2552,
      "west": 2553,
      "Ġniv": 2554,
      "Ġreact": 2555,
      "ards": 2556,
      "ĠsÃŃ": 2557,
      "ids": 2558,
      "Ġalways": 2559,
      "Ġmostly": 2560,
      "Ġeffect": 2561,
      "ket": 2562,
      "Ġpast": 2563,
      "Ġfron": 2564,
      "Ġinvest": 2565,
      "Ġplants": 2566,
      "Ġsecret": 2567,
      "Ġconse": 2568,
      "Ġalthough": 2569,
      "Ġclub": 2570,
      "Ġcenter": 2571,
      "Ġelectron": 2572,
      "Ġmetal": 2573,
      "Ġ22": 2574,
      "Ġdar": 2575,
      "Ġdere": 2576,
      "Ġmuse": 2577,
      "ety": 2578,
      "Ġseen": 2579,
      "Ġven": 2580,
      "Ġcomplet": 2581,
      "Ġchristian": 2582,
      "ised": 2583,
      "Ġdav": 2584,
      "Ġbad": 2585,
      "Ġsec": 2586,
      "Ġ2004": 2587,
      "Ġheld": 2588,
      "ha": 2589,
      "Ġhaving": 2590,
      "Ġareas": 2591,
      "Ġchec": 2592,
      "Ġlin": 2593,
      "Ġmism": 2594,
      "Ġasia": 2595,
      "Ġheav": 2596,
      "ery": 2597,
      "onas": 2598,
      "Ġrussia": 2599,
      "17": 2600,
      "Ġlived": 2601,
      "Ġdatos": 2602,
      "roy": 2603,
      "Ġbooks": 2604,
      "Ġparticular": 2605,
      "aut": 2606,
      "Ġinside": 2607,
      "Ġbegin": 2608,
      "Ġlow": 2609,
      "uses": 2610,
      "Ġvan": 2611,
      "Ġwall": 2612,
      "Ġrepl": 2613,
      "Ġdebido": 2614,
      "ham": 2615,
      "Ġpur": 2616,
      "Ġcourt": 2617,
      "Ġclo": 2618,
      "Ġfrancis": 2619,
      "Ġmeaning": 2620,
      "ired": 2621,
      "Ġarab": 2622,
      "Ġtour": 2623,
      "da": 2624,
      "icip": 2625,
      "este": 2626,
      "icamente": 2627,
      "Ġinte": 2628,
      "olic": 2629,
      "chn": 2630,
      "Ġonce": 2631,
      "Ġoriginal": 2632,
      "Ġhall": 2633,
      "ility": 2634,
      "aced": 2635,
      "ĠeconÃ³m": 2636,
      "Ġviol": 2637,
      "pr": 2638,
      "che": 2639,
      "Ġcuatro": 2640,
      "ĠgÃ©nero": 2641,
      "ĠtravÃ©s": 2642,
      "Ġinternet": 2643,
      "Ġwoman": 2644,
      "Ġdentro": 2645,
      "ĠpÃºbl": 2646,
      "Ġspain": 2647,
      "Ġ1990": 2648,
      "ĠespaÃ±ol": 2649,
      "ically": 2650,
      "ables": 2651,
      "Ġdock": 2652,
      "Ġvac": 2653,
      "Ġprocess": 2654,
      "Ġindustri": 2655,
      "Ġdetermin": 2656,
      "Ġlouis": 2657,
      "sel": 2658,
      "ivid": 2659,
      "ativa": 2660,
      "Ġdrop": 2661,
      "Ġdecid": 2662,
      "Ġfig": 2663,
      "Ġconqu": 2664,
      "Ġindian": 2665,
      "Ġchanged": 2666,
      "Ġscience": 2667,
      "vi": 2668,
      "Ġhund": 2669,
      "Ġotra": 2670,
      "eo": 2671,
      "anos": 2672,
      "Ġdiferentes": 2673,
      "head": 2674,
      "ĠtÃ©r": 2675,
      "eras": 2676,
      "Ġleague": 2677,
      "Ġ2001": 2678,
      "yal": 2679,
      "Ġotro": 2680,
      "ments": 2681,
      "Ġdig": 2682,
      "isis": 2683,
      "Ġped": 2684,
      "Ġjapanese": 2685,
      "Ġelectric": 2686,
      "Ġprovincia": 2687,
      "iest": 2688,
      "cep": 2689,
      "Ġwithin": 2690,
      "Ġ184": 2691,
      "ecut": 2692,
      "Ġeth": 2693,
      "terior": 2694,
      "Ġ2013": 2695,
      "Ġcertain": 2696,
      "Ġbetter": 2697,
      "ste": 2698,
      "Ġmuchos": 2699,
      "quier": 2700,
      "Ġconj": 2701,
      "iew": 2702,
      "Ġacad": 2703,
      "Ġhalf": 2704,
      "Ġil": 2705,
      "Ġren": 2706,
      "Ġjue": 2707,
      "Ġ2012": 2708,
      "Ġmother": 2709,
      "Ġreturn": 2710,
      "Ġps": 2711,
      "osoph": 2712,
      "una": 2713,
      "Ġconserv": 2714,
      "Ġimportante": 2715,
      "lim": 2716,
      "ob": 2717,
      "ters": 2718,
      "Ġhost": 2719,
      "Ġlevel": 2720,
      "Ġtor": 2721,
      "anci": 2722,
      "Ġ28": 2723,
      "like": 2724,
      "ĠpequeÃ±": 2725,
      "Ġcare": 2726,
      "Ġ2003": 2727,
      "american": 2728,
      "Ġestruct": 2729,
      "Ġnever": 2730,
      "Ġsport": 2731,
      "Ġbusiness": 2732,
      "Ġbelieve": 2733,
      "Ġcinco": 2734,
      "lor": 2735,
      "Ġcause": 2736,
      "Ġpict": 2737,
      "Ġ23": 2738,
      "Ġuses": 2739,
      "Ġcells": 2740,
      "Ġmight": 2741,
      "Ġ2007": 2742,
      "bit": 2743,
      "gn": 2744,
      "Ġescrit": 2745,
      "Ġbuilding": 2746,
      "Ġflor": 2747,
      "Ġrussian": 2748,
      "ither": 2749,
      "Ġdenomin": 2750,
      "Ġphilosoph": 2751,
      "Ġtex": 2752,
      "Ġguerra": 2753,
      "vert": 2754,
      "tom": 2755,
      "Ġpract": 2756,
      "Ġmant": 2757,
      "Ġampl": 2758,
      "Ġsiendo": 2759,
      "Ġcalend": 2760,
      "Ġ1980": 2761,
      "Ġmundial": 2762,
      "Ġtemperature": 2763,
      "Ġanno": 2764,
      "Ġah": 2765,
      "Ġcit": 2766,
      "udo": 2767,
      "uvo": 2768,
      "ĠregiÃ³n": 2769,
      "Ġelected": 2770,
      "Ġmunicip": 2771,
      "ives": 2772,
      "Ġamong": 2773,
      "Ġmarried": 2774,
      "Ġ2018": 2775,
      "Ġaccord": 2776,
      "ĠdÃŃa": 2777,
      "Ġinstr": 2778,
      "Ġprom": 2779,
      "Ġmart": 2780,
      "Ġimper": 2781,
      "Ġ2009": 2782,
      "iene": 2783,
      "mp": 2784,
      "Ġhealth": 2785,
      "ativo": 2786,
      "16": 2787,
      "Ġ26": 2788,
      "Ġorden": 2789,
      "Ġleast": 2790,
      "Ġpartir": 2791,
      "Ġcounty": 2792,
      "Ġsingle": 2793,
      "cra": 2794,
      "Ġmom": 2795,
      "Ġneces": 2796,
      "ained": 2797,
      "Ġadminist": 2798,
      "Ġactor": 2799,
      "ences": 2800,
      "ches": 2801,
      "Ġ50": 2802,
      "Ġchanges": 2803,
      "zas": 2804,
      "Ġlake": 2805,
      "Ġencont": 2806,
      "ipp": 2807,
      "Ġfollowing": 2808,
      "Ġdone": 2809,
      "arias": 2810,
      "igr": 2811,
      "Ġdiam": 2812,
      "Ġ1960": 2813,
      "Ġhistoria": 2814,
      "ĠcÃ©lulas": 2815,
      "Ġta": 2816,
      "Ġsain": 2817,
      "Ġpes": 2818,
      "ÃŃf": 2819,
      "Ġqued": 2820,
      "Ġcolomb": 2821,
      "Ġfuer": 2822,
      "dose": 2823,
      "enty": 2824,
      "Ġargent": 2825,
      "ille": 2826,
      "uto": 2827,
      "Ġwhe": 2828,
      "Ġengine": 2829,
      "Ġtravel": 2830,
      "Ġwriter": 2831,
      "Ġorigen": 2832,
      "Ġcuba": 2833,
      "cop": 2834,
      "ypt": 2835,
      "Ġpriv": 2836,
      "Ġsomeone": 2837,
      "Ġevol": 2838,
      "iers": 2839,
      "Ġuso": 2840,
      "Ġmenos": 2841,
      "Ġaustria": 2842,
      "Ġvida": 2843,
      "dad": 2844,
      "Ġdam": 2845,
      "Ġllev": 2846,
      "Ġbeh": 2847,
      "ĠhabÃŃa": 2848,
      "ky": 2849,
      "Ġhac": 2850,
      "ament": 2851,
      "Ġ27": 2852,
      "Ġsust": 2853,
      "Ġmel": 2854,
      "Ġbol": 2855,
      "Ġparl": 2856,
      "Ġideas": 2857,
      "Ġindependence": 2858,
      "eds": 2859,
      "enz": 2860,
      "Ġdue": 2861,
      "ane": 2862,
      "22": 2863,
      "Ġcort": 2864,
      "Ġpoc": 2865,
      "Ġprize": 2866,
      "Ġapro": 2867,
      "Ġsmaller": 2868,
      "ole": 2869,
      "itz": 2870,
      "Ġmovies": 2871,
      "Ġastron": 2872,
      "Ġlatin": 2873,
      "rup": 2874,
      "rash": 2875,
      "Ġcos": 2876,
      "Ġball": 2877,
      "emente": 2878,
      "Ġnobel": 2879,
      "Ġitaly": 2880,
      "kes": 2881,
      "Ġapar": 2882,
      "Ġproduce": 2883,
      "Ġwindows": 2884,
      "ĠtÃ©rmin": 2885,
      "14": 2886,
      "ander": 2887,
      "Ġ2019": 2888,
      "Ġmerc": 2889,
      "ony": 2890,
      "Ġuk": 2891,
      "Ġyeah": 2892,
      "Ġparliam": 2893,
      "Ġsit": 2894,
      "Ġdut": 2895,
      "Ġconsidered": 2896,
      "ĠÃºn": 2897,
      "Ġvarios": 2898,
      "Ġseason": 2899,
      "Ġobra": 2900,
      "Ġproblems": 2901,
      "Ġnuclear": 2902,
      "rÃŃa": 2903,
      "Ġ$": 2904,
      "Ġfal": 2905,
      "Ġni": 2906,
      "Ġalf": 2907,
      "Ġpred": 2908,
      "Ġcorre": 2909,
      "Ġagre": 2910,
      "ousand": 2911,
      "Ġprincipal": 2912,
      "Ã³d": 2913,
      "Ġbreak": 2914,
      "Ġ29": 2915,
      "Ġwashington": 2916,
      "Ġannoun": 2917,
      "ye": 2918,
      "Ġtheory": 2919,
      "Ġeastern": 2920,
      "Ġcentro": 2921,
      "Ġsimple": 2922,
      "Ġcheck": 2923,
      "Ġprob": 2924,
      "Ġbritain": 2925,
      "Ġsev": 2926,
      "teen": 2927,
      "Ġprotect": 2928,
      "Ġpoder": 2929,
      "Ġegypt": 2930,
      "Ġchinese": 2931,
      "rim": 2932,
      "Ġcrash": 2933,
      "Ġdios": 2934,
      "raciÃ³n": 2935,
      "Ġindivid": 2936,
      "Ġgrupo": 2937,
      "Ġbul": 2938,
      "Ġable": 2939,
      "Ġextre": 2940,
      "Ġbirth": 2941,
      "ram": 2942,
      "Ġauth": 2943,
      "Ġthousand": 2944,
      "Ġnations": 2945,
      "Ġunidos": 2946,
      "Ġ1970": 2947,
      "Ġhumans": 2948,
      "13": 2949,
      "Ġvide": 2950,
      "Ġcompet": 2951,
      "Ġdirector": 2952,
      "Ġbiggest": 2953,
      "Ġrights": 2954,
      "Ġenough": 2955,
      "Ġmeth": 2956,
      "Ġpaul": 2957,
      "Ġelection": 2958,
      "Ġill": 2959,
      "Ġice": 2960,
      "Ġthing": 2961,
      "ilo": 2962,
      "Ġcuenta": 2963,
      "Ġparliament": 2964,
      "Ġsen": 2965,
      "Ġunders": 2966,
      "Ġire": 2967,
      "Ġmediante": 2968,
      "men": 2969,
      "inal": 2970,
      "Ġvot": 2971,
      "Ġinvol": 2972,
      "Ġcosta": 2973,
      "han": 2974,
      "Ġcup": 2975,
      "Ġgrie": 2976,
      "Ġislam": 2977,
      "Ġexam": 2978,
      "Ġsour": 2979,
      "soci": 2980,
      "Ġtry": 2981,
      "Ġdead": 2982,
      "Ġnight": 2983,
      "Ġsuf": 2984,
      "Ġtechn": 2985,
      "Ġ2017": 2986,
      "Ġdestroy": 2987,
      "Ġireland": 2988,
      "Ġcomerci": 2989,
      "Ġdoctor": 2990,
      "Ġsignific": 2991,
      "Ġemperor": 2992,
      "Ġinvestig": 2993,
      "Ġdoc": 2994,
      "Ġmember": 2995,
      "Ġgar": 2996,
      "Ġprincipales": 2997,
      "Ġcastilla": 2998,
      "ĠpelÃŃcul": 2999,
      "fe": 3000,
      "osp": 3001,
      "Ġcold": 3002,
      "Ġtradition": 3003,
      "Ġaccording": 3004,
      "ror": 3005,
      "ĠmÃ¡": 3006,
      "Ġmach": 3007,
      "oss": 3008,
      "Ġley": 3009,
      "Ġcontra": 3010,
      "Ġteach": 3011,
      "Ġincludes": 3012,
      "va": 3013,
      "Ġpost": 3014,
      "Ġ2002": 3015,
      "Ġprem": 3016,
      "Ġitalian": 3017,
      "Ġbegins": 3018,
      "ently": 3019,
      "Ġdistrib": 3020,
      "Ġsymbol": 3021,
      "ris": 3022,
      "Ġstri": 3023,
      "tes": 3024,
      "Ġcross": 3025,
      "Ġbajo": 3026,
      "Ġtodas": 3027,
      "Ġeuropa": 3028,
      "Ġsurf": 3029,
      "Ġfederal": 3030,
      "Ġayud": 3031,
      "orÃŃa": 3032,
      "Ġlate": 3033,
      "Ġkil": 3034,
      "jas": 3035,
      "Ġtax": 3036,
      "illas": 3037,
      "Ġtext": 3038,
      "Ġmedio": 3039,
      "ho": 3040,
      "isl": 3041,
      "Ġrobert": 3042,
      "Ġmuchas": 3043,
      "Ġcrit": 3044,
      "Ġhace": 3045,
      "Ġenv": 3046,
      "Ġatlant": 3047,
      "Ġfle": 3048,
      "Ġche": 3049,
      "Â».": 3050,
      "Ġsoftware": 3051,
      "Ġbc": 3052,
      "Ġ185": 3053,
      "Ġantes": 3054,
      "lect": 3055,
      "Ġcaused": 3056,
      "win": 3057,
      "itution": 3058,
      "Ġcelebr": 3059,
      "Ġfield": 3060,
      "Ġplantas": 3061,
      "enn": 3062,
      "Ġways": 3063,
      "Ġforest": 3064,
      "berg": 3065,
      "Ġground": 3066,
      "Ġlargo": 3067,
      "Ġsab": 3068,
      "Ġram": 3069,
      "Ġmountain": 3070,
      "'t": 3071,
      "Ġdip": 3072,
      "Ġpeace": 3073,
      "ĠproducciÃ³n": 3074,
      "ono": 3075,
      "Ġgir": 3076,
      "Ġran": 3077,
      "Ġpark": 3078,
      "Ġtaken": 3079,
      "ially": 3080,
      "eter": 3081,
      "rict": 3082,
      "37": 3083,
      "Ġcoun": 3084,
      "):": 3085,
      "Ġdia": 3086,
      "Ġstory": 3087,
      "Ġlaws": 3088,
      "Ã¶": 3089,
      "Ġdom": 3090,
      "Ġwood": 3091,
      "iembre": 3092,
      "Ġpublished": 3093,
      "sol": 3094,
      "Ġnar": 3095,
      "Ġpermit": 3096,
      "gs": 3097,
      "Ġsat": 3098,
      "Ġsam": 3099,
      "Ġstyle": 3100,
      "Ġfrank": 3101,
      "atures": 3102,
      "Ġinformation": 3103,
      "ateg": 3104,
      "Ġformed": 3105,
      "point": 3106,
      "Ġwil": 3107,
      "Ġeither": 3108,
      "Ġviet": 3109,
      "Ġjes": 3110,
      "ael": 3111,
      "Ġcontr": 3112,
      "Ġsuccessful": 3113,
      "cas": 3114,
      "Ġaver": 3115,
      "ster": 3116,
      "Ġagu": 3117,
      "Ġcaso": 3118,
      "Ġsinger": 3119,
      "Ġsongs": 3120,
      "stein": 3121,
      "199": 3122,
      "ling": 3123,
      "Ġtall": 3124,
      "Ġlan": 3125,
      "Ġbab": 3126,
      "Ġjug": 3127,
      "apt": 3128,
      "ucciÃ³n": 3129,
      "posed": 3130,
      "Ġtrat": 3131,
      "Ġcharacter": 3132,
      "Ġtener": 3133,
      "Ġmicros": 3134,
      "craft": 3135,
      "Ġconc": 3136,
      "Ġclas": 3137,
      "Ġnueva": 3138,
      "Ġversion": 3139,
      "Ġhyd": 3140,
      "Ġcro": 3141,
      "Ġmis": 3142,
      "Ġsho": 3143,
      "Ġoutside": 3144,
      "ĠmÃºs": 3145,
      "Ġespaci": 3146,
      "Ġconstru": 3147,
      "Ġhighest": 3148,
      "Ġorganism": 3149,
      "Ġnivel": 3150,
      "Ġbor": 3151,
      "Ã³s": 3152,
      "Ġcho": 3153,
      "cida": 3154,
      "Ġexisten": 3155,
      "Ġexplor": 3156,
      "ee": 3157,
      "right": 3158,
      "Ġproper": 3159,
      "Ġroyal": 3160,
      "Ġdisease": 3161,
      "Ġestab": 3162,
      "Ġacross": 3163,
      "Ġmole": 3164,
      "Ġigles": 3165,
      "Ġproceso": 3166,
      "rado": 3167,
      "val": 3168,
      "Ġq": 3169,
      "Ġtrop": 3170,
      "ĠmÃ©": 3171,
      "rael": 3172,
      "Ġfamilia": 3173,
      "oci": 3174,
      "Ġtierra": 3175,
      "Ġpun": 3176,
      "atura": 3177,
      "kn": 3178,
      "Ġcru": 3179,
      "Ġfemale": 3180,
      "Ġmathemat": 3181,
      "Ġdavid": 3182,
      "Äģ": 3183,
      "ention": 3184,
      "Ġpresid": 3185,
      "Ġflight": 3186,
      "Ġdistint": 3187,
      "Ġmary": 3188,
      "Ġcatal": 3189,
      "Ġkinds": 3190,
      "Ġimportantes": 3191,
      "gre": 3192,
      "Ġcier": 3193,
      "rel": 3194,
      "edad": 3195,
      "Ġjose": 3196,
      "ricult": 3197,
      "Ġpersonal": 3198,
      "gress": 3199,
      "Ġespecially": 3200,
      "Ġvisit": 3201,
      "ĠÃ©p": 3202,
      "30": 3203,
      "Ġrelativ": 3204,
      "gin": 3205,
      "Ġglo": 3206,
      "Ġveces": 3207,
      "Ġencuentra": 3208,
      "ique": 3209,
      "Ġlost": 3210,
      "Ġ31": 3211,
      "Ġmuslim": 3212,
      "Ġoffice": 3213,
      "Ġvietnam": 3214,
      "Ġfut": 3215,
      "ript": 3216,
      "mar": 3217,
      "Ġcalling": 3218,
      "Ġcoll": 3219,
      "Ġ2015": 3220,
      "itch": 3221,
      "Ġvill": 3222,
      "Ġwriting": 3223,
      "fo": 3224,
      "gu": 3225,
      "Ġtas": 3226,
      "Ġ2016": 3227,
      "Ġ40": 3228,
      "Ġdrug": 3229,
      "wards": 3230,
      "Ġnuevo": 3231,
      "Ġacadem": 3232,
      "Ġcatholic": 3233,
      "Ġfa": 3234,
      "ĠamÃ©rica": 3235,
      "Ġpolice": 3236,
      "Ġlonger": 3237,
      "Ġmand": 3238,
      "Ġandal": 3239,
      "Ġassoci": 3240,
      "Ġperform": 3241,
      "Ġoly": 3242,
      "Ġgave": 3243,
      "Ġphot": 3244,
      "Ġsexual": 3245,
      "Ġlengu": 3246,
      "Ġcover": 3247,
      "Ġgoes": 3248,
      "Ġiii": 3249,
      "ĠÃ¡re": 3250,
      "Ġdeclar": 3251,
      "Ġolymp": 3252,
      "Ġcient": 3253,
      "Ġhon": 3254,
      "Ġagricult": 3255,
      "Ġsays": 3256,
      "Ġefect": 3257,
      "ified": 3258,
      "Ġcarga": 3259,
      "Ġalex": 3260,
      "Ã±o": 3261,
      "Ġearl": 3262,
      "Ġindependent": 3263,
      "bal": 3264,
      "ators": 3265,
      "rian": 3266,
      "Ġflu": 3267,
      "onio": 3268,
      "Ġenc": 3269,
      "Ġplayers": 3270,
      "Ġguitar": 3271,
      "Ġmonths": 3272,
      "back": 3273,
      "Ġnaz": 3274,
      "Ġclimate": 3275,
      "Ġdio": 3276,
      "Ġdog": 3277,
      "Ġpose": 3278,
      "Ġben": 3279,
      "Ġservice": 3280,
      "iar": 3281,
      "Ġcere": 3282,
      "Ġofic": 3283,
      "Ġparticip": 3284,
      "Ġdict": 3285,
      "Ġles": 3286,
      "Ġpope": 3287,
      "Ã¡f": 3288,
      "Ġfeel": 3289,
      "att": 3290,
      "Ġclose": 3291,
      "Ġsaint": 3292,
      "ply": 3293,
      "Ġinh": 3294,
      "ĠÂ°": 3295,
      "hol": 3296,
      "Ġok": 3297,
      "Ġisrael": 3298,
      "eta": 3299,
      "Ġdivided": 3300,
      "11": 3301,
      "izaciÃ³n": 3302,
      "Ã©tica": 3303,
      "ered": 3304,
      "je": 3305,
      "ump": 3306,
      "Ġanimal": 3307,
      "Ġid": 3308,
      "ala": 3309,
      "23": 3310,
      "Ġ|": 3311,
      "Ġtwenty": 3312,
      "Ġtrain": 3313,
      "Ġfounded": 3314,
      "ĠdÃ©c": 3315,
      "Ġnative": 3316,
      "Ġboard": 3317,
      "Ġ179": 3318,
      "Ġextra": 3319,
      "Ġcultural": 3320,
      "Ġtroops": 3321,
      "uales": 3322,
      "Ġsell": 3323,
      "Ġprison": 3324,
      "Ġimm": 3325,
      "Ġautor": 3326,
      "Ġscotland": 3327,
      "rid": 3328,
      "onces": 3329,
      "Ġdej": 3330,
      "Ġinj": 3331,
      "Ġquien": 3332,
      "aps": 3333,
      "Ã©cn": 3334,
      "Ġsend": 3335,
      "Ġveget": 3336,
      "Ġequip": 3337,
      "Ġnet": 3338,
      "Ġhoy": 3339,
      "60": 3340,
      "Ġann": 3341,
      "Ġjuan": 3342,
      "Ġclaim": 3343,
      "writ": 3344,
      "Ġlay": 3345,
      "str": 3346,
      "Ġparis": 3347,
      "Ġroll": 3348,
      "Ġelectr": 3349,
      "Ġreform": 3350,
      "Ġscientists": 3351,
      "Ġauthor": 3352,
      "erÃŃa": 3353,
      "chos": 3354,
      "Ġestim": 3355,
      "Ġaleman": 3356,
      "Ġmejor": 3357,
      "onia": 3358,
      "Ġoil": 3359,
      "Ġcultura": 3360,
      "selves": 3361,
      "cest": 3362,
      "line": 3363,
      "self": 3364,
      "itor": 3365,
      "Ġellos": 3366,
      "Ġheart": 3367,
      "Ġze": 3368,
      "Ġthemselves": 3369,
      "Ġmodel": 3370,
      "Ġprofess": 3371,
      "Ġhydro": 3372,
      "lic": 3373,
      "Ġburn": 3374,
      "ately": 3375,
      "Ġcomed": 3376,
      "Ġsolar": 3377,
      "Ġ1999": 3378,
      "Ġsquare": 3379,
      "Ġairport": 3380,
      "Ġtradic": 3381,
      "Ġaverage": 3382,
      "less": 3383,
      "Ġsed": 3384,
      "Ġrey": 3385,
      "Ġ180": 3386,
      "aceae": 3387,
      "Ġscre": 3388,
      "Ġbrasil": 3389,
      "Ġsize": 3390,
      "Ġworking": 3391,
      "Ġkorea": 3392,
      "Ġbos": 3393,
      "Ġshows": 3394,
      "Ġmanera": 3395,
      "Ġamericans": 3396,
      "Ġsociety": 3397,
      "Ġterritorio": 3398,
      "Ġfarm": 3399,
      "Ġproblem": 3400,
      "Ġacid": 3401,
      "Ġpue": 3402,
      "Ġentonces": 3403,
      "Ġzona": 3404,
      "hi": 3405,
      "Ġpak": 3406,
      "Ġpunto": 3407,
      "Ġcompuest": 3408,
      "Ġhour": 3409,
      "Ġreligion": 3410,
      "Ġmale": 3411,
      "uls": 3412,
      "Ġculture": 3413,
      "cular": 3414,
      "illo": 3415,
      "Ġabove": 3416,
      "ĠtÃ©cn": 3417,
      "ciÃ³": 3418,
      "Ġsector": 3419,
      "ende": 3420,
      "earch": 3421,
      "Ġinternacional": 3422,
      "Ġrichard": 3423,
      "Ġrule": 3424,
      "Ġwife": 3425,
      "Ġquick": 3426,
      "Ġ=": 3427,
      "ulf": 3428,
      "Ġcompound": 3429,
      "Ġblue": 3430,
      "Ġpalab": 3431,
      "ont": 3432,
      "Ġfest": 3433,
      "ÃŃg": 3434,
      "Ġcolumb": 3435,
      "Ġresearch": 3436,
      "Ġmiles": 3437,
      "Ġprincipalmente": 3438,
      "ances": 3439,
      "omÃŃa": 3440,
      "Ġnether": 3441,
      "Ġswed": 3442,
      "Ġallowed": 3443,
      "wer": 3444,
      "Ã±a": 3445,
      "work": 3446,
      "Ġkar": 3447,
      "Ġbush": 3448,
      "Ġsummer": 3449,
      "Ġepis": 3450,
      "uk": 3451,
      "Ġdecir": 3452,
      "Ġhem": 3453,
      "Ġhosp": 3454,
      "Ġrh": 3455,
      "Ġese": 3456,
      "Ġrole": 3457,
      "Ġsuperior": 3458,
      "Ġvideo": 3459,
      "Ġdich": 3460,
      "Ġyard": 3461,
      "Ġtrade": 3462,
      "Ġhill": 3463,
      "erson": 3464,
      "ansas": 3465,
      "Ġtermin": 3466,
      "Ġvarias": 3467,
      "Ġmountains": 3468,
      "Ġtreaty": 3469,
      "Ġdutch": 3470,
      "Ġpaci": 3471,
      "Ġhip": 3472,
      "ux": 3473,
      "empt": 3474,
      "Ġdebe": 3475,
      "Ġargentina": 3476,
      "amin": 3477,
      "Ġreport": 3478,
      "Ġfort": 3479,
      "Ġadult": 3480,
      "Ġpersonas": 3481,
      "ych": 3482,
      "Ġub": 3483,
      "Ġhug": 3484,
      "Ġreb": 3485,
      "Ġsure": 3486,
      "Ġkills": 3487,
      "Ġcolombia": 3488,
      "ĠÃ©poca": 3489,
      "Ġsir": 3490,
      "Ġatom": 3491,
      "phere": 3492,
      ");": 3493,
      "ency": 3494,
      "Ġorient": 3495,
      "Ġsurv": 3496,
      "Ġworked": 3497,
      "Ġended": 3498,
      "Ġsanta": 3499,
      "ĠcaracterÃŃst": 3500,
      "Ġpossible": 3501,
      "Ġcuales": 3502,
      "oken": 3503,
      "cidos": 3504,
      "Ġcasi": 3505,
      "Ġcristian": 3506,
      "Ġcard": 3507,
      "Ġsha": 3508,
      "ended": 3509,
      "Ġadop": 3510,
      "Ġinterpre": 3511,
      "Ġbirds": 3512,
      "irt": 3513,
      "Ġappro": 3514,
      "Ġwrite": 3515,
      "Ġspeed": 3516,
      "ground": 3517,
      "Ġmit": 3518,
      "Ġuniverse": 3519,
      "Ġsurface": 3520,
      "anda": 3521,
      "Ġ1995": 3522,
      "Ġaplic": 3523,
      "Ġahead": 3524,
      "Ġdata": 3525,
      "Ġnap": 3526,
      "Ġcongress": 3527,
      "Ġvo": 3528,
      "Ġweap": 3529,
      "Ġnetherlands": 3530,
      "utes": 3531,
      "Ġmeet": 3532,
      "Ġmediter": 3533,
      "Â»,": 3534,
      "Ġestablish": 3535,
      "40": 3536,
      "ges": 3537,
      "Ġgard": 3538,
      "Ġarque": 3539,
      "Ġpuer": 3540,
      "Ġlarger": 3541,
      "Ġcut": 3542,
      "Ġwars": 3543,
      "Ġconstitution": 3544,
      "Ġoxy": 3545,
      "Ġweek": 3546,
      "Ġocup": 3547,
      "rica": 3548,
      "ination": 3549,
      "Ġforms": 3550,
      "Ġauton": 3551,
      "80": 3552,
      "Ġbroad": 3553,
      "Ġconjunto": 3554,
      "Ġtam": 3555,
      "Ġredu": 3556,
      "Ġrail": 3557,
      "Ġprince": 3558,
      "ĠprÃ¡ct": 3559,
      "Ġcand": 3560,
      "ĠseÃ±": 3561,
      "Ġmovement": 3562,
      "ns": 3563,
      "Ġlower": 3564,
      "Ġstay": 3565,
      "ĠquÃ©": 3566,
      "Ġgets": 3567,
      "Ġdeveloped": 3568,
      "ym": 3569,
      "ĠcÃ³d": 3570,
      "Ġlic": 3571,
      "ams": 3572,
      "Ġ1996": 3573,
      "Ġattempt": 3574,
      "Ġindustrial": 3575,
      "Ġmethod": 3576,
      "Ġmix": 3577,
      "Ġliqu": 3578,
      "Ġvarious": 3579,
      "Ġscott": 3580,
      "iger": 3581,
      "Ġjer": 3582,
      "Ġchamp": 3583,
      "ĠleÃ³n": 3584,
      "Ġgoing": 3585,
      "Ġconsist": 3586,
      "Ġvirgin": 3587,
      "acionales": 3588,
      "Ġcalendar": 3589,
      "aur": 3590,
      "ls": 3591,
      "Ġsac": 3592,
      "Ġfav": 3593,
      "ĠfÃŃs": 3594,
      "Ġconcent": 3595,
      "Ġcuer": 3596,
      "Ġhimself": 3597,
      "Ġcualquier": 3598,
      "Ġmisma": 3599,
      "known": 3600,
      "Ġlove": 3601,
      "ema": 3602,
      "resp": 3603,
      "Ġsoldiers": 3604,
      "akes": 3605,
      "Ġsegunda": 3606,
      "25": 3607,
      "urr": 3608,
      "Ġdiscovered": 3609,
      "Ġaud": 3610,
      "erb": 3611,
      "Ġmess": 3612,
      "ils": 3613,
      "Ġrelations": 3614,
      "Ġlives": 3615,
      "Ġwinter": 3616,
      "Ġappear": 3617,
      "cn": 3618,
      "ari": 3619,
      "itive": 3620,
      "used": 3621,
      "Ġweb": 3622,
      "Ġoldest": 3623,
      "Ġappoint": 3624,
      "Ġ1998": 3625,
      "Ġbelieved": 3626,
      "Ġrules": 3627,
      "Ġfull": 3628,
      "Ġbasic": 3629,
      "ĠespaÃ±ola": 3630,
      "Ġsens": 3631,
      "Ġdry": 3632,
      "Ġhind": 3633,
      "ota": 3634,
      "Ġexpres": 3635,
      "Ġtard": 3636,
      "iga": 3637,
      "Ġago": 3638,
      "Ġmusical": 3639,
      "Ġvalenci": 3640,
      "Ġ[": 3641,
      "Ġcorn": 3642,
      "asons": 3643,
      "Ġsoon": 3644,
      "Ġdoct": 3645,
      "ĠenergÃŃa": 3646,
      "fs": 3647,
      "tand": 3648,
      "Ġpay": 3649,
      "owers": 3650,
      "Ġtrue": 3651,
      "Ġhelped": 3652,
      "Ġearthqu": 3653,
      "Ġdemocratic": 3654,
      "Ġpakistan": 3655,
      "Ġcad": 3656,
      "Ġnames": 3657,
      "Ġunos": 3658,
      "Ġreligious": 3659,
      "Ġestudio": 3660,
      "Ġfront": 3661,
      "Ġdropped": 3662,
      "iron": 3663,
      "Ġrob": 3664,
      "Ġoxygen": 3665,
      "Ġcondu": 3666,
      "Ġalcan": 3667,
      "ualmente": 3668,
      "Ġinm": 3669,
      "olo": 3670,
      "Ġsug": 3671,
      "Ġib": 3672,
      "Ġcreate": 3673,
      "Ġmichael": 3674,
      "Ġschools": 3675,
      "rada": 3676,
      "Ġlaun": 3677,
      "Ġroad": 3678,
      "Ġsino": 3679,
      "Ġdet": 3680,
      "itan": 3681,
      "uns": 3682,
      "Ġsuperfic": 3683,
      "Ġfrancisco": 3684,
      "ored": 3685,
      "Ġregular": 3686,
      "Ġ1994": 3687,
      "Ġcauses": 3688,
      "Ġbib": 3689,
      "Ġaliment": 3690,
      "Ġstra": 3691,
      "ips": 3692,
      "Ġflat": 3693,
      "olf": 3694,
      "Ġreagan": 3695,
      "Ġvia": 3696,
      "Ġorg": 3697,
      "Ġpickup": 3698,
      "Ġlog": 3699,
      "Ġitself": 3700,
      "ormente": 3701,
      "Ġ1991": 3702,
      "Ġeran": 3703,
      "ĠlÃŃne": 3704,
      "lan": 3705,
      "Ġbay": 3706,
      "Ġtold": 3707,
      "ivas": 3708,
      "Ġmexico": 3709,
      "ughter": 3710,
      "Ġzonas": 3711,
      "Ġmedicine": 3712,
      "Ġborder": 3713,
      "iro": 3714,
      "Ġax": 3715,
      "Ġthomas": 3716,
      "Ġdies": 3717,
      "Ġpil": 3718,
      "Ġeconomy": 3719,
      "ĠtÃ©rmino": 3720,
      "yo": 3721,
      "Ġsud": 3722,
      "uments": 3723,
      "untos": 3724,
      "Ġoccid": 3725,
      "Ġextens": 3726,
      "Ġmainly": 3727,
      "Ġgrav": 3728,
      "Ġpaper": 3729,
      "\")": 3730,
      "Ġfru": 3731,
      "Ġreason": 3732,
      "ems": 3733,
      "Ġprimeros": 3734,
      "Ġencuentran": 3735,
      "Ġhundred": 3736,
      "Ġrap": 3737,
      "Ġstars": 3738,
      "Ġexecut": 3739,
      "Ġcarry": 3740,
      "Ġcorresp": 3741,
      "Ġneeded": 3742,
      "Ġgrupos": 3743,
      "ima": 3744,
      "Ġjos": 3745,
      "Ġneut": 3746,
      "ficult": 3747,
      "Ġvalor": 3748,
      "Ġremov": 3749,
      "Ġcine": 3750,
      "Ġlord": 3751,
      "Ġexact": 3752,
      "Ġcase": 3753,
      "aq": 3754,
      "Ġbox": 3755,
      "Ġdifficult": 3756,
      "Ġhaw": 3757,
      "Ġ60": 3758,
      "Ġnormal": 3759,
      "Ġunderstand": 3760,
      "Ġcouncil": 3761,
      "Ġdark": 3762,
      "rag": 3763,
      "ably": 3764,
      "Ġperman": 3765,
      "aza": 3766,
      "Ġskin": 3767,
      "Ġadministr": 3768,
      "ĠmÃºsica": 3769,
      "din": 3770,
      "iere": 3771,
      "ester": 3772,
      "Ġvaria": 3773,
      "Ġciencia": 3774,
      "asion": 3775,
      "Ġgrass": 3776,
      "Ġjoined": 3777,
      "Ġ177": 3778,
      "Ġmultip": 3779,
      "Ġdin": 3780,
      "Ġlad": 3781,
      "imo": 3782,
      "Ġexcept": 3783,
      "Ġsystems": 3784,
      "Ġrecogn": 3785,
      "cks": 3786,
      "field": 3787,
      "enas": 3788,
      "Ġseis": 3789,
      "Ġperm": 3790,
      "rought": 3791,
      "Ġiran": 3792,
      "Ã¡tica": 3793,
      "aw": 3794,
      "rÃ¡n": 3795,
      "Ġdir": 3796,
      "eder": 3797,
      "Ġarqu": 3798,
      "Ġmorn": 3799,
      "Ġends": 3800,
      "thes": 3801,
      "Ġ(\"": 3802,
      "Ġjunto": 3803,
      "Ġproced": 3804,
      "Ġchic": 3805,
      "Ġchile": 3806,
      "Ġaffect": 3807,
      "Ġtoda": 3808,
      "Ġnumeros": 3809,
      "Ġrunning": 3810,
      "Ġath": 3811,
      "Ġhid": 3812,
      "Ġvoy": 3813,
      "Ġbank": 3814,
      "mark": 3815,
      "Ġstone": 3816,
      "Ġblues": 3817,
      "Ġbuildings": 3818,
      "rich": 3819,
      "Ġinse": 3820,
      "irse": 3821,
      "ÃŃfic": 3822,
      "ibles": 3823,
      "Ġmonarch": 3824,
      "Ġ1989": 3825,
      "Ġfail": 3826,
      "Ã¡ce": 3827,
      "Ġcontain": 3828,
      "Ġdescub": 3829,
      "Ġexamples": 3830,
      "Ġce": 3831,
      "Ġlabor": 3832,
      "ĠcomÃºn": 3833,
      "Ġcomenz": 3834,
      "Ġhecho": 3835,
      "Ġmedical": 3836,
      "Ġtransport": 3837,
      "Ġbarcel": 3838,
      "ission": 3839,
      "Ġcollege": 3840,
      "nes": 3841,
      "Ġgan": 3842,
      "acy": 3843,
      "Ġspoken": 3844,
      "Ġboy": 3845,
      "aja": 3846,
      "Ġprovince": 3847,
      "uf": 3848,
      "Ġtree": 3849,
      "Ġfur": 3850,
      "aÃ±o": 3851,
      "Ġour": 3852,
      "icar": 3853,
      "ested": 3854,
      "Ġken": 3855,
      "abet": 3856,
      "Ġleaves": 3857,
      "Ġcarib": 3858,
      "Ġ183": 3859,
      "Ġspread": 3860,
      "Ġincluded": 3861,
      "Ġ178": 3862,
      "Ġcomputers": 3863,
      "Ġterritory": 3864,
      "Ġpoco": 3865,
      "Ġjoseph": 3866,
      "bra": 3867,
      "Ġiss": 3868,
      "aged": 3869,
      "Ġresist": 3870,
      "Ġposteri": 3871,
      "Ġlegisl": 3872,
      "Ġcampo": 3873,
      "Ġagua": 3874,
      "Ġjew": 3875,
      "Ġiglesia": 3876,
      "Ġsegu": 3877,
      "Ġgeorg": 3878,
      "Ġdecided": 3879,
      "adamente": 3880,
      "cio": 3881,
      "Ġstruct": 3882,
      "porte": 3883,
      "Ġlegal": 3884,
      "Ġdevelopment": 3885,
      "Ġmorning": 3886,
      "ĠrÃŃo": 3887,
      "Ġjacks": 3888,
      "Ġimag": 3889,
      "east": 3890,
      "Ġfly": 3891,
      "oso": 3892,
      "Ġincluso": 3893,
      "Ġciudades": 3894,
      "Ġgreece": 3895,
      "uring": 3896,
      "Ġcancer": 3897,
      "Ġcastell": 3898,
      "Ġatlantic": 3899,
      "icio": 3900,
      "Ġsistemas": 3901,
      "wood": 3902,
      "Ġsatur": 3903,
      "Ġpm": 3904,
      "Ġhere": 3905,
      "Ġcoup": 3906,
      "Ġwhole": 3907,
      "Ġmoving": 3908,
      "Ġprevious": 3909,
      "Ġquickly": 3910,
      "tico": 3911,
      "inc": 3912,
      "Ġhung": 3913,
      "Ġrevol": 3914,
      "Ġadded": 3915,
      "Ã¡tico": 3916,
      "oft": 3917,
      "pir": 3918,
      "Ġaltern": 3919,
      "Ġclar": 3920,
      "Ġbridge": 3921,
      "writer": 3922,
      "vin": 3923,
      "Ġiv": 3924,
      "ĠÃ³r": 3925,
      "Ġdial": 3926,
      "Ġinstit": 3927,
      "Ġbarcelona": 3928,
      "Ġbrought": 3929,
      "Ġasoci": 3930,
      "Ġhigher": 3931,
      "Ġnovel": 3932,
      "Ġrecib": 3933,
      "xual": 3934,
      "Ġtend": 3935,
      "Ġartic": 3936,
      "Ġgives": 3937,
      "Ġsegundo": 3938,
      "Ġinterpret": 3939,
      "iler": 3940,
      "odos": 3941,
      "Ġcook": 3942,
      "Ġcompon": 3943,
      "Ġposition": 3944,
      "Ġpassed": 3945,
      "zar": 3946,
      "Ġinfer": 3947,
      "Ġstep": 3948,
      "Ġquij": 3949,
      "odes": 3950,
      "Ġevid": 3951,
      "Ġsyn": 3952,
      "Ġjackson": 3953,
      "ĠfunciÃ³n": 3954,
      "Ġimpro": 3955,
      "Ġmatter": 3956,
      "Ġfriends": 3957,
      "'.": 3958,
      "Ġic": 3959,
      "Ġsom": 3960,
      "Ġris": 3961,
      "Ġoppos": 3962,
      "Ġintroduc": 3963,
      "Ġsports": 3964,
      "Ġenviron": 3965,
      "ville": 3966,
      "eres": 3967,
      "ĠmÃ©t": 3968,
      "Ġbod": 3969,
      "ume": 3970,
      "Ġmoon": 3971,
      "Ġespecialmente": 3972,
      "Ġelementos": 3973,
      "Ġinsect": 3974,
      "Ġbon": 3975,
      "Ġquest": 3976,
      "Ġjun": 3977,
      "Ġ1997": 3978,
      "Ġiron": 3979,
      "Ġva": 3980,
      "Ġletters": 3981,
      "Ġelements": 3982,
      "Ġ#": 3983,
      "ĠÃ©l": 3984,
      "icaciÃ³n": 3985,
      "Ġespe": 3986,
      "Ġsupre": 3987,
      "Ġfen": 3988,
      "abor": 3989,
      "ief": 3990,
      "Ġtecn": 3991,
      "Ġpoet": 3992,
      "Ġcirc": 3993,
      "Ġmuseum": 3994,
      "Ġdyn": 3995,
      "Ġdeal": 3996,
      "Ġbeat": 3997,
      "Ġstories": 3998,
      "Ġproy": 3999,
      "ological": 4000,
      "Ġ1945": 4001,
      "Ġsalt": 4002,
      "Ġintegr": 4003,
      "tas": 4004,
      "Ġtim": 4005,
      "Ġvit": 4006,
      "Ġpolic": 4007,
      "Ġbraz": 4008,
      "Ġlooking": 4009,
      "Ġpad": 4010,
      "Ġmah": 4011,
      "Ġham": 4012,
      "ÃŃgen": 4013,
      "erse": 4014,
      "Ġworkers": 4015,
      "Ġpresidential": 4016,
      "Ġleaders": 4017,
      "Ġbrown": 4018,
      "ĠnÃºcle": 4019,
      "Ġsource": 4020,
      "dr": 4021,
      "Ġfib": 4022,
      "ulos": 4023,
      "Ġkansas": 4024,
      "Ġesper": 4025,
      "Ġanti": 4026,
      "Ġderecho": 4027,
      "Ġpacific": 4028,
      "wor": 4029,
      "ĠÃ³": 4030,
      "Ġdic": 4031,
      "Ġconvert": 4032,
      "Ġrelacion": 4033,
      "ativos": 4034,
      "Ġcompanies": 4035,
      "Ġscreen": 4036,
      "Ġarquitect": 4037,
      "Ġmol": 4038,
      "Ġfast": 4039,
      "Ġrang": 4040,
      "Ġaspect": 4041,
      "Ġcompr": 4042,
      "Ġhair": 4043,
      "Ġmicrosoft": 4044,
      "bro": 4045,
      "Ġregist": 4046,
      "Ġedad": 4047,
      "198": 4048,
      "Ġemple": 4049,
      "Ġcommunity": 4050,
      "Ġintrodu": 4051,
      "Ġheavy": 4052,
      "Ġchicago": 4053,
      "24": 4054,
      "cast": 4055,
      "Ġtried": 4056,
      "Ġmax": 4057,
      "omp": 4058,
      "istic": 4059,
      "Ġconfeder": 4060,
      "Ġvirginia": 4061,
      "Ġaj": 4062,
      "Ġdens": 4063,
      "rod": 4064,
      "Ġparents": 4065,
      "ĠteorÃŃa": 4066,
      "Ġlands": 4067,
      "Ġproducer": 4068,
      "Ġlearn": 4069,
      "Ġperten": 4070,
      "ublican": 4071,
      "Ġhabl": 4072,
      "Ġlengua": 4073,
      "ez": 4074,
      "war": 4075,
      "Ġedward": 4076,
      "Ġautom": 4077,
      "Ġtrabaj": 4078,
      "Ġbeginning": 4079,
      "Ġindividual": 4080,
      "Ġcompounds": 4081,
      "Ġweapons": 4082,
      "instein": 4083,
      "Ġisla": 4084,
      "Ġalber": 4085,
      "ÃŃos": 4086,
      "ellow": 4087,
      "erous": 4088,
      "Ġcommit": 4089,
      "Ġmovimiento": 4090,
      "Ġ1992": 4091,
      "Ġhabla": 4092,
      "Ġ1950": 4093,
      "Ġbrother": 4094,
      "Ġsnow": 4095,
      "cias": 4096,
      "Ġalcal": 4097,
      "Ġviv": 4098,
      "iza": 4099,
      "Ġcrisis": 4100,
      "Ġpowerful": 4101,
      "ression": 4102,
      "Ġaddition": 4103,
      "ements": 4104,
      "Ġsiem": 4105,
      "Ġconstant": 4106,
      "Ġsubst": 4107,
      "ĠinformaciÃ³n": 4108,
      "Ġactualmente": 4109,
      "Ġeducation": 4110,
      "Ġtab": 4111,
      "Ġbit": 4112,
      "edor": 4113,
      "Ġobras": 4114,
      "Ġrepro": 4115,
      "Ġblan": 4116,
      "ologist": 4117,
      "Ġhabitantes": 4118,
      "Ġastronom": 4119,
      "arian": 4120,
      "Ġwhy": 4121,
      "Ġshot": 4122,
      "izo": 4123,
      "Ġiraq": 4124,
      "Ġtipos": 4125,
      "Ġships": 4126,
      "Ġobjects": 4127,
      "fÃŃa": 4128,
      "Ġtales": 4129,
      "Ġwales": 4130,
      "Ġnut": 4131,
      "ude": 4132,
      "clus": 4133,
      "Ġhospital": 4134,
      "ingu": 4135,
      "Ġthroughout": 4136,
      "Ġexperien": 4137,
      "Ġmiemb": 4138,
      "ĠpolÃŃtica": 4139,
      "Ġpsych": 4140,
      "--": 4141,
      "gra": 4142,
      "enos": 4143,
      "aland": 4144,
      "Ġwid": 4145,
      "aga": 4146,
      "Ġplane": 4147,
      "Ġstudents": 4148,
      "Ġofficially": 4149,
      "Ġoccur": 4150,
      "Ġdefeat": 4151,
      "Ġdepart": 4152,
      "Ġmurder": 4153,
      "Ġestructura": 4154,
      "Ġtexas": 4155,
      "Ġpuerto": 4156,
      "gon": 4157,
      "jos": 4158,
      "ols": 4159,
      "Ġrica": 4160,
      "Ġstorm": 4161,
      "Ã¡p": 4162,
      "enciÃ³n": 4163,
      "acters": 4164,
      "Ġ1993": 4165,
      "Ġcharacters": 4166,
      "Ġslow": 4167,
      "Ġsand": 4168,
      "Ġbah": 4169,
      "Ġdeport": 4170,
      "Ġgeneralmente": 4171,
      "Ġolder": 4172,
      "my": 4173,
      "Ġalta": 4174,
      "ires": 4175,
      "Ġleon": 4176,
      "Ġcontrib": 4177,
      "Ġacab": 4178,
      "Ġwarm": 4179,
      "Ġrepublican": 4180,
      "Ġsail": 4181,
      "bour": 4182,
      "Ġtrees": 4183,
      "Ġrecorded": 4184,
      "...": 4185,
      "Ġfel": 4186,
      "Ġestat": 4187,
      "rane": 4188,
      "ienen": 4189,
      "Ġjob": 4190,
      "Ġexperiment": 4191,
      "Ġdestroyed": 4192,
      "Ġanal": 4193,
      "abeth": 4194,
      "Ġ1975": 4195,
      "Ġluz": 4196,
      "Ġstreet": 4197,
      "ĠjosÃ©": 4198,
      "ĠbÃ¡s": 4199,
      "uri": 4200,
      "Ġfought": 4201,
      "iedad": 4202,
      "Ġempres": 4203,
      "Ġholy": 4204,
      "Ġquijote": 4205,
      "Ġoct": 4206,
      "Ġocho": 4207,
      "Ġwear": 4208,
      "icios": 4209,
      "enth": 4210,
      "Ġnomin": 4211,
      "ivamente": 4212,
      "Ġdisney": 4213,
      "Ġterror": 4214,
      "Ġconsum": 4215,
      "Ġ1940": 4216,
      "Ġcommunist": 4217,
      "Ġcitiz": 4218,
      "lom": 4219,
      "rucciÃ³n": 4220,
      "Ġdedic": 4221,
      "Ã¡r": 4222,
      "Ġreplaced": 4223,
      "Ġsiempre": 4224,
      "Ġ000": 4225,
      "Ġhunt": 4226,
      "onald": 4227,
      "Ġproduced": 4228,
      "Ġderiv": 4229,
      "Ġrespons": 4230,
      "Ġmeasure": 4231,
      "ĠdÃ©cada": 4232,
      "Â²": 4233,
      "Ġburg": 4234,
      "Ġflo": 4235,
      "Ġpues": 4236,
      "Ġexiste": 4237,
      "Ġlength": 4238,
      "Ġantiguo": 4239,
      "ea": 4240,
      "pan": 4241,
      "Ġrub": 4242,
      "Ġserie": 4243,
      "Ġrelated": 4244,
      "Ġregions": 4245,
      "Ġbecoming": 4246,
      "Ġbrain": 4247,
      "Ġbudd": 4248,
      "ready": 4249,
      "Ġnapole": 4250,
      "Ġearthquake": 4251,
      "Ġenvironment": 4252,
      "tt": 4253,
      "Ġreino": 4254,
      "Ġalph": 4255,
      "Ġview": 4256,
      "Ġrange": 4257,
      "Ġshar": 4258,
      "elling": 4259,
      "Ġthirty": 4260,
      "Ġrecono": 4261,
      "wan": 4262,
      "Ġwr": 4263,
      "uries": 4264,
      "ctions": 4265,
      "Ġvon": 4266,
      "ÃŃp": 4267,
      "Ġplaying": 4268,
      "Ġsigned": 4269,
      "Ġeconomic": 4270,
      "Ġfeder": 4271,
      "Ġdescribe": 4272,
      "Ġcrashes": 4273,
      "Ġlaunch": 4274,
      "Ġbrazil": 4275,
      "Ġcateg": 4276,
      "Ġnation": 4277,
      "Ġalco": 4278,
      "Ġinclu": 4279,
      "Ġsurg": 4280,
      "Ġgrande": 4281,
      "Ġcopy": 4282,
      "ĠeconomÃŃa": 4283,
      "Ġdaughter": 4284,
      "Ġcelular": 4285,
      "bles": 4286,
      "cano": 4287,
      "Ġatoms": 4288,
      "Ġmancha": 4289,
      "Ġ2020": 4290,
      "Ġ1930": 4291,
      "Ġmadrid": 4292,
      "ĠpelÃŃcula": 4293,
      "Ġdeep": 4294,
      "ĠuniÃ³n": 4295,
      "Ġalready": 4296,
      "chan": 4297,
      "ope": 4298,
      "ÃŃfico": 4299,
      "iation": 4300,
      "Ġfab": 4301,
      "Ġchlor": 4302,
      "Ġshown": 4303,
      "Ġpoland": 4304,
      "Ġsalv": 4305,
      "board": 4306,
      "Ġreligios": 4307,
      "Ġletter": 4308,
      "Ġpeter": 4309,
      "Ġoccup": 4310,
      "Ġcanadian": 4311,
      "Ġtorn": 4312,
      "iciones": 4313,
      "Ġelse": 4314,
      "Ġspring": 4315,
      "Ġacuer": 4316,
      "Ġevents": 4317,
      "culos": 4318,
      "Ġmodo": 4319,
      "Ġstarting": 4320,
      "Ġdocument": 4321,
      "65": 4322,
      "fl": 4323,
      "Ġaer": 4324,
      "Ġfres": 4325,
      "Ġancest": 4326,
      "Ġvote": 4327,
      "Ġrather": 4328,
      "acim": 4329,
      "Ġformas": 4330,
      "Ġrelease": 4331,
      "Ġrecords": 4332,
      "Ġsucce": 4333,
      "Ġcloses": 4334,
      "Ġhacer": 4335,
      "ĠcÃ³digo": 4336,
      "27": 4337,
      "Ġanne": 4338,
      "Ġnerv": 4339,
      "cipl": 4340,
      "Ã³ric": 4341,
      "Ġstation": 4342,
      "Ġmark": 4343,
      "Ã¡nica": 4344,
      "Ã¡ndose": 4345,
      "Ġobt": 4346,
      "Ġflag": 4347,
      "Ġgetting": 4348,
      "Ġkept": 4349,
      "Ġaquell": 4350,
      "Ġincor": 4351,
      "Ġshape": 4352,
      "Ġliquid": 4353,
      "64": 4354,
      "jan": 4355,
      "Ġbio": 4356,
      "Ġvoc": 4357,
      "ager": 4358,
      "medi": 4359,
      "ny": 4360,
      "ira": 4361,
      "Ġjur": 4362,
      "Ġestar": 4363,
      "aco": 4364,
      "Ġtruck": 4365,
      "Ġfinales": 4366,
      "Ġ80": 4367,
      "Ġestudios": 4368,
      "Ġbin": 4369,
      "Ġelev": 4370,
      "Ġpoor": 4371,
      "Ġuniversidad": 4372,
      "ship": 4373,
      "Ġingl": 4374,
      "Ġkilomet": 4375,
      "ki": 4376,
      "Ġpint": 4377,
      "Ġleave": 4378,
      "ardo": 4379,
      "Ġtransl": 4380,
      "urnal": 4381,
      "ĠÃ¡r": 4382,
      "Ġarchitect": 4383,
      "Ġsuperficie": 4384,
      "wa": 4385,
      "ality": 4386,
      "Ġwel": 4387,
      "Ġfore": 4388,
      "Ġprint": 4389,
      "Ġmario": 4390,
      "Ġminor": 4391,
      "iction": 4392,
      "Ġmilitar": 4393,
      "Ġgracias": 4394,
      "Ġthousands": 4395,
      "Ġoficial": 4396,
      "Ġbran": 4397,
      "Ġeinstein": 4398,
      "cles": 4399,
      "Ġround": 4400,
      "aÃ±a": 4401,
      "cuencia": 4402,
      "Ġmenor": 4403,
      "Ġprincipios": 4404,
      "Ġindustria": 4405,
      "Ġmamm": 4406,
      "Ġec": 4407,
      "Ġdeliver": 4408,
      "play": 4409,
      "Ġmuj": 4410,
      "ombres": 4411,
      "Ġruled": 4412,
      "Ġportugal": 4413,
      "pal": 4414,
      "ened": 4415,
      "Ġdate": 4416,
      "oro": 4417,
      "Ġante": 4418,
      "Ġproject": 4419,
      "izabeth": 4420,
      "Ġcompar": 4421,
      "uble": 4422,
      "Ġinterior": 4423,
      "Ġlibro": 4424,
      "Ġhappens": 4425,
      "cciones": 4426,
      "uela": 4427,
      "year": 4428,
      "ĠÎ": 4429,
      "Ġdang": 4430,
      "Ġadapt": 4431,
      "Ġsubject": 4432,
      "Ġreceived": 4433,
      "Ġaproxim": 4434,
      "ying": 4435,
      "ering": 4436,
      "Ġcarol": 4437,
      "Ġaccept": 4438,
      "Ġbillion": 4439,
      "Ġcantidad": 4440,
      "Ġsecretary": 4441,
      "Ġshoot": 4442,
      "dos": 4443,
      "Ġcic": 4444,
      "Ġpul": 4445,
      "alled": 4446,
      "Ġheat": 4447,
      "Ġcool": 4448,
      "Ġbigger": 4449,
      "Ġteams": 4450,
      "Ġantigua": 4451,
      "Ġtropical": 4452,
      "ged": 4453,
      "oo": 4454,
      "rone": 4455,
      "uego": 4456,
      "Ġstandard": 4457,
      "Ġdirig": 4458,
      "Â°": 4459,
      "Ġtuvo": 4460,
      "Ġacept": 4461,
      "ĠdÃŃas": 4462,
      "Ġfoc": 4463,
      "Ġvice": 4464,
      "Ġescu": 4465,
      "Ġtele": 4466,
      "Ġelizabeth": 4467,
      "Ġalto": 4468,
      "Ġvene": 4469,
      "Ġapare": 4470,
      "ensive": 4471,
      "Ġcommand": 4472,
      "cepto": 4473,
      "bed": 4474,
      "umento": 4475,
      "Ġspir": 4476,
      "Ġcrecimiento": 4477,
      "ropol": 4478,
      "Ġstarts": 4479,
      "Ġaustralian": 4480,
      "har": 4481,
      "inaciÃ³n": 4482,
      "Ġplat": 4483,
      "count": 4484,
      "Ġgrew": 4485,
      "Ġindustry": 4486,
      "Ġmomento": 4487,
      "uta": 4488,
      "Ġgrad": 4489,
      "Ġ500": 4490,
      "Ġposible": 4491,
      "197": 4492,
      "Ġaircraft": 4493,
      "Ġjane": 4494,
      "Ġscottish": 4495,
      "Ġbene": 4496,
      "Ġning": 4497,
      "Ġalred": 4498,
      "Ġkim": 4499,
      "Ġcommonly": 4500,
      "Ġnearly": 4501,
      "Ġresto": 4502,
      "Ġpictures": 4503,
      "mÃ¡n": 4504,
      "Ġ+": 4505,
      "erland": 4506,
      "Ġabs": 4507,
      "Ġmucho": 4508,
      "Ġgreg": 4509,
      "Ġtransform": 4510,
      "Ġkey": 4511,
      "xide": 4512,
      "Ġton": 4513,
      "Ġros": 4514,
      "Ġdrink": 4515,
      "Ġprogramm": 4516,
      "oides": 4517,
      "uese": 4518,
      "Ġconcept": 4519,
      "Ġexport": 4520,
      "ibilidad": 4521,
      "Ġ1986": 4522,
      "ailable": 4523,
      "where": 4524,
      "Ġdarwin": 4525,
      "Ġfuture": 4526,
      "Ġnapoleon": 4527,
      "iamente": 4528,
      "ker": 4529,
      "Ġple": 4530,
      "Ġwins": 4531,
      "Ġenem": 4532,
      "Ġhydrogen": 4533,
      "emos": 4534,
      "rio": 4535,
      "Ġcontact": 4536,
      "Ġottom": 4537,
      "Ġherb": 4538,
      "culo": 4539,
      "Ġnormally": 4540,
      "Ġcomplex": 4541,
      "Ġtraditional": 4542,
      "Ġjesus": 4543,
      "Ġdynast": 4544,
      "bas": 4545,
      "cell": 4546,
      "Ġvent": 4547,
      "Ġsuic": 4548,
      "rito": 4549,
      "enses": 4550,
      "Ġtempl": 4551,
      "Ġslav": 4552,
      "erbai": 4553,
      "ev": 4554,
      "enced": 4555,
      "Ġanth": 4556,
      "Ġcour": 4557,
      "Ġentire": 4558,
      "Ġinfect": 4559,
      "Ġharry": 4560,
      "Ġfollowed": 4561,
      "Ġprofes": 4562,
      "ĠeducaciÃ³n": 4563,
      "Ġwhether": 4564,
      "rad": 4565,
      "sen": 4566,
      "Ġbron": 4567,
      "Ġnature": 4568,
      "estra": 4569,
      "Ã©ct": 4570,
      "uda": 4571,
      "Ġresign": 4572,
      "Ġmineral": 4573,
      "Ġfinanci": 4574,
      "Ġ1968": 4575,
      "Ġanimales": 4576,
      "Ġgenerally": 4577,
      "Ġeventually": 4578,
      "Ġflorida": 4579,
      "Ġhonor": 4580,
      "90": 4581,
      "Ġquant": 4582,
      "Ġneigh": 4583,
      "Ġcart": 4584,
      "Ġfreed": 4585,
      "Ġpiece": 4586,
      "Ġtitle": 4587,
      "Ġearlier": 4588,
      "yes": 4589,
      "ini": 4590,
      "Ġspl": 4591,
      "Ġlado": 4592,
      "ĠâĢĺ": 4593,
      "Ġdistrict": 4594,
      "atives": 4595,
      "Ġescrib": 4596,
      "Ġllamada": 4597,
      "itude": 4598,
      "Ġigual": 4599,
      "Ġseparate": 4600,
      "Ġmotor": 4601,
      "Ġazerbai": 4602,
      "Ġsiglo": 4603,
      "ech": 4604,
      "Ġmir": 4605,
      "Ġdete": 4606,
      "Ġellas": 4607,
      "Ġalum": 4608,
      "Ġtempor": 4609,
      "Ġgraph": 4610,
      "Ġlimit": 4611,
      "Ġappeared": 4612,
      "Ġawards": 4613,
      "ijo": 4614,
      "rg": 4615,
      "Ġtv": 4616,
      "Ġcra": 4617,
      "Ġmap": 4618,
      "oles": 4619,
      "cted": 4620,
      "romos": 4621,
      "Ġcoal": 4622,
      "Ġjoin": 4623,
      "ecen": 4624,
      "Ġmetropol": 4625,
      "Ġbelg": 4626,
      "Ġsociedad": 4627,
      "Ġcerca": 4628,
      "Ġdiversas": 4629,
      "Ġimperio": 4630,
      "Ġacademy": 4631,
      "Ġtarde": 4632,
      "28": 4633,
      "Ġcode": 4634,
      "rip": 4635,
      "Ġobl": 4636,
      "Ġ1979": 4637,
      "Ġartes": 4638,
      "Ġbelow": 4639,
      "Ġtaking": 4640,
      "Ġciviliz": 4641,
      "Ġfighting": 4642,
      "Ġnavy": 4643,
      "Ġalexander": 4644,
      "Ġdialect": 4645,
      "arÃŃa": 4646,
      "Ġislas": 4647,
      "Ġforman": 4648,
      "Ġperfect": 4649,
      "Ġapart": 4650,
      "Ġattacks": 4651,
      "Ġcontinental": 4652,
      "Ã©tico": 4653,
      "Ġespacio": 4654,
      "Ġalrededor": 4655,
      "tos": 4656,
      "Ġ/": 4657,
      "Ġthin": 4658,
      "Ġlines": 4659,
      "Ġwide": 4660,
      "eda": 4661,
      "Ġ70": 4662,
      "ĠautÃ³n": 4663,
      "Ġduke": 4664,
      "Ġzealand": 4665,
      "Ġmut": 4666,
      "itual": 4667,
      "Ġrat": 4668,
      "Ġapple": 4669,
      "Ġrome": 4670,
      "Ġllamado": 4671,
      "ĠorganizaciÃ³n": 4672,
      "Ġurban": 4673,
      "33": 4674,
      "iot": 4675,
      "lav": 4676,
      "Ġbak": 4677,
      "Ġbits": 4678,
      "tera": 4679,
      "Ġlee": 4680,
      "Ġnewsp": 4681,
      "Ġcentre": 4682,
      "Ġevolution": 4683,
      "Ġwebs": 4684,
      "Ġhours": 4685,
      "Ġcharge": 4686,
      "Ġconvirt": 4687,
      "Ġbacteria": 4688,
      "ĠpÃºblico": 4689,
      "Ġchampions": 4690,
      "Ġpier": 4691,
      "Ġbass": 4692,
      "Ġwild": 4693,
      "ĠrepÃºbl": 4694,
      "Ġfeet": 4695,
      "Ġregiones": 4696,
      "Ġ1982": 4697,
      "Ġ1971": 4698,
      "Ġalgor": 4699,
      "Ġ1944": 4700,
      "Ġportuguese": 4701,
      "Ġtrabajo": 4702,
      "cr": 4703,
      "tic": 4704,
      "Ġluego": 4705,
      "rick": 4706,
      "Ġimportancia": 4707,
      "Ġveh": 4708,
      "Ġsett": 4709,
      "Ġoriginally": 4710,
      "Ġhappened": 4711,
      "Ġexplorer": 4712,
      "Ġrelationship": 4713,
      "Ġnewspap": 4714,
      "Ġwatch": 4715,
      "iving": 4716,
      "Ġfeature": 4717,
      "Ġpaso": 4718,
      "Ġproducts": 4719,
      "Ġvictoria": 4720,
      "Ġclear": 4721,
      "erve": 4722,
      "Ġbern": 4723,
      "Ġfat": 4724,
      "Ġnit": 4725,
      "Ġgun": 4726,
      "Ã³nica": 4727,
      "ĠrelaciÃ³n": 4728,
      "Ġ1973": 4729,
      "ÃŃculo": 4730,
      "Ġdrugs": 4731,
      "Ġnetwork": 4732,
      "Ġproyect": 4733,
      "Ġforeign": 4734,
      "aug": 4735,
      "Ġpens": 4736,
      "Ġfol": 4737,
      "Ġtouch": 4738,
      "iday": 4739,
      "Ġunits": 4740,
      "cidas": 4741,
      "Ġjournal": 4742,
      "Ġcrime": 4743,
      "Ġ1987": 4744,
      "Ġcases": 4745,
      "Ġleading": 4746,
      "Ġphysics": 4747,
      "Ġinvented": 4748,
      "Ġayudar": 4749,
      "Ġestaba": 4750,
      "Ġarth": 4751,
      "Ġcontains": 4752,
      "Ġdiversos": 4753,
      "Ġpieces": 4754,
      "Ġgriego": 4755,
      "Ġsweden": 4756,
      "nd": 4757,
      "vis": 4758,
      "reg": 4759,
      "cional": 4760,
      "Ġestilo": 4761,
      "Ġperfor": 4762,
      "Ġmuer": 4763,
      "Ġ1985": 4764,
      "Ġmanten": 4765,
      "ĠdÃŃg": 4766,
      "Ġunas": 4767,
      "Ġrivers": 4768,
      "Ġ1920": 4769,
      "Ġmeant": 4770,
      "Ġprepar": 4771,
      "Ġweather": 4772,
      "Ġplays": 4773,
      "Ġciencias": 4774,
      "Ġexplos": 4775,
      "Ġparticles": 4776,
      "Ġphysical": 4777,
      "Ġmicro": 4778,
      "Ġnazi": 4779,
      "26": 4780,
      "47": 4781,
      "hel": 4782,
      "Ġtub": 4783,
      "Ġpy": 4784,
      "cip": 4785,
      "ionales": 4786,
      "eland": 4787,
      "Ġsele": 4788,
      "Ġsequ": 4789,
      "Ġforty": 4790,
      "Ġatmos": 4791,
      "Ġdiscipl": 4792,
      "Ġfrances": 4793,
      "Ġfinalmente": 4794,
      "Ġ1974": 4795,
      "Ġalemania": 4796,
      "bec": 4797,
      "hib": 4798,
      "Ġhorm": 4799,
      "Ġforced": 4800,
      "Ġones": 4801,
      "Ġmex": 4802,
      "Ġsaw": 4803,
      "Ġvari": 4804,
      "ativas": 4805,
      "Ġespecie": 4806,
      "Ġavailable": 4807,
      "Ġactividad": 4808,
      "Ġmajority": 4809,
      "ĠgÃ©neros": 4810,
      "Ġsounds": 4811,
      "Ġeasily": 4812,
      "Ġjewish": 4813,
      "Ġtun": 4814,
      "Ġself": 4815,
      "Ġdim": 4816,
      "rew": 4817,
      "ila": 4818,
      "izes": 4819,
      "Ġpuedo": 4820,
      "Ġpoints": 4821,
      "ĠmÃ©xico": 4822,
      "Ġfruit": 4823,
      "Ġremoved": 4824,
      "ĠrepÃºblica": 4825,
      "time": 4826,
      "Ġtin": 4827,
      "Ġtheat": 4828,
      "Ġpir": 4829,
      "org": 4830,
      "Ġbang": 4831,
      "alla": 4832,
      "Ġaccid": 4833,
      "ification": 4834,
      "Ġproduction": 4835,
      "Ġfourth": 4836,
      "Ġ90": 4837,
      "Ġslaves": 4838,
      "Ġprograms": 4839,
      "Ġgalax": 4840,
      "Ġaguj": 4841,
      "Ġesa": 4842,
      "Ġdoing": 4843,
      "Ġhouses": 4844,
      "adora": 4845,
      "Ġfrequ": 4846,
      "Ġsiguiente": 4847,
      "Ġandaluc": 4848,
      "Ġsuggest": 4849,
      "aign": 4850,
      "Ġther": 4851,
      "Ġcarter": 4852,
      "Ġgenes": 4853,
      "Ġsurround": 4854,
      "ografÃŃa": 4855,
      "Ã¡ceas": 4856,
      "Ġacuerdo": 4857,
      "ken": 4858,
      "met": 4859,
      "off": 4860,
      "Ġbow": 4861,
      "Ġford": 4862,
      "Ġempt": 4863,
      "ĠconstrucciÃ³n": 4864,
      "Ġangeles": 4865,
      "Ġopened": 4866,
      "ogrÃ¡f": 4867,
      "ĠÃºltimo": 4868,
      "ĠcaracterÃŃsticas": 4869,
      "ĠmaÃ±": 4870,
      "edia": 4871,
      "icia": 4872,
      "Ġecu": 4873,
      "Ġarist": 4874,
      "Ġmarket": 4875,
      "Ġenter": 4876,
      "Ġcalcul": 4877,
      "which": 4878,
      "Ġjuegos": 4879,
      "Ġmartin": 4880,
      ",\"": 4881,
      "Ġorbit": 4882,
      "Ġhojas": 4883,
      "Ġrestaur": 4884,
      "Ġchristmas": 4885,
      "Ġpenis": 4886,
      "Ġassass": 4887,
      "66": 4888,
      "78": 4889,
      "bc": 4890,
      "Ġsav": 4891,
      "Ġusa": 4892,
      "Ġactive": 4893,
      "Ġastero": 4894,
      "Ġcambio": 4895,
      "Ġbehav": 4896,
      "light": 4897,
      "ping": 4898,
      "Ġcated": 4899,
      "aries": 4900,
      "Ġbible": 4901,
      "Ġfot": 4902,
      "Ġvas": 4903,
      "Ġ1981": 4904,
      "Ġconocido": 4905,
      "Ġscientific": 4906,
      "Ġincluye": 4907,
      "Ġvenez": 4908,
      "29": 4909,
      "bn": 4910,
      "Ġsite": 4911,
      "Ġjack": 4912,
      "Ġchan": 4913,
      "Ġactually": 4914,
      "Ġ1988": 4915,
      "Ġanything": 4916,
      "Ġlocation": 4917,
      "Ġtalk": 4918,
      "Ġeggs": 4919,
      "Ġeasy": 4920,
      "ĠmaÃ±ana": 4921,
      "dam": 4922,
      "kely": 4923,
      "Ġmind": 4924,
      "Ġov": 4925,
      "Ġguard": 4926,
      "Ġmilk": 4927,
      "Ġspecific": 4928,
      "Ġreligions": 4929,
      "Ã¡ticos": 4930,
      "Ġcampaign": 4931,
      "Ġperiodo": 4932,
      "Ġsupported": 4933,
      "Ġprevent": 4934,
      "Ġdiplom": 4935,
      "Ġcuerpo": 4936,
      "Ġinferior": 4937,
      "Ġdynasty": 4938,
      "Ġsad": 4939,
      "Ġmatch": 4940,
      "ĠquÃŃm": 4941,
      "Ġdesert": 4942,
      "Ġ1972": 4943,
      "Ġ1967": 4944,
      "Ġeuropea": 4945,
      "Ġserved": 4946,
      "Ġpenins": 4947,
      "Ġjews": 4948,
      "Ġposteriormente": 4949,
      "Ġinn": 4950,
      "Ġages": 4951,
      "Ġobten": 4952,
      "Ġprovincias": 4953,
      "Ġextrem": 4954,
      "rest": 4955,
      "Ġult": 4956,
      "ili": 4957,
      "Ġcarr": 4958,
      "Ġsolid": 4959,
      "Ġcorte": 4960,
      "Ġ1969": 4961,
      "aleza": 4962,
      "Ġcandid": 4963,
      "Ġoccidental": 4964,
      "'ll": 4965,
      "pres": 4966,
      "ties": 4967,
      "Ġfro": 4968,
      "ential": 4969,
      "Ġenfer": 4970,
      "Ġrein": 4971,
      "Ġpropor": 4972,
      "acidad": 4973,
      "Ġ35": 4974,
      "Ġregul": 4975,
      "Ġ1978": 4976,
      "ĠmÃ¡xim": 4977,
      "ĠÃ¡rea": 4978,
      "des": 4979,
      "tles": 4980,
      "well": 4981,
      "Ġtable": 4982,
      "Ġello": 4983,
      "Ġray": 4984,
      "Ġsoil": 4985,
      "Ġobst": 4986,
      "cules": 4987,
      "ĠhistÃ³r": 4988,
      "Ġ1964": 4989,
      "Ġirish": 4990,
      "Ġneeds": 4991,
      "Ġcorrect": 4992,
      "Ġmachine": 4993,
      "Ġfestival": 4994,
      "lict": 4995,
      "wide": 4996,
      "Ġisbn": 4997,
      "Ġyellow": 4998,
      "Ġstock": 4999,
      "Ġsuel": 5000,
      "ifica": 5001,
      "Ġmechan": 5002,
      "Ġpolish": 5003,
      "Ġfranc": 5004,
      "posiciÃ³n": 5005,
      "Ġdestacan": 5006,
      "hamm": 5007,
      "mb": 5008,
      "pose": 5009,
      "Ġgi": 5010,
      "ift": 5011,
      "Ġ300": 5012,
      "ÃŃstica": 5013,
      "ĠconstituciÃ³n": 5014,
      "Ġidi": 5015,
      "don": 5016,
      "ffic": 5017,
      "ĠaÃºn": 5018,
      "esto": 5019,
      "Ġalic": 5020,
      "oven": 5021,
      "Ġtherefore": 5022,
      "ensa": 5023,
      "Ġstudies": 5024,
      "ÃŃculas": 5025,
      "Ġgeorgia": 5026,
      "Ġespec": 5027,
      "mir": 5028,
      "ray": 5029,
      "Ġbell": 5030,
      "Ġunit": 5031,
      "Ġcanarias": 5032,
      "ĠclÃ¡s": 5033,
      "Ġterms": 5034,
      "Ġ1965": 5035,
      "Ġjean": 5036,
      "Ġcommunic": 5037,
      "Ġelectrons": 5038,
      "Ġpicture": 5039,
      "ĠclasificaciÃ³n": 5040,
      "Ġpresidente": 5041,
      "Ġcul": 5042,
      "Ġcum": 5043,
      "Ġluc": 5044,
      "Ġandor": 5045,
      "Ġense": 5046,
      "otec": 5047,
      "Ġpregn": 5048,
      "Ġdistance": 5049,
      "Ġinstitu": 5050,
      "Ġstudied": 5051,
      "Ġservices": 5052,
      "Ġgrowing": 5053,
      "Ġprimeras": 5054,
      "Ġfifteen": 5055,
      "tar": 5056,
      "Ġpush": 5057,
      "eding": 5058,
      "usiÃ³n": 5059,
      "Ġparal": 5060,
      "Ġ1976": 5061,
      "Ġinstrument": 5062,
      "aff": 5063,
      "Ġfern": 5064,
      "ively": 5065,
      "Ġpresencia": 5066,
      "Ġbuy": 5067,
      "Ġ1983": 5068,
      "Ġbelong": 5069,
      "Ġ1941": 5070,
      "Ġdivision": 5071,
      "Ġsecur": 5072,
      "Ġannounced": 5073,
      "Ġdoctors": 5074,
      "Ġcitizens": 5075,
      "45": 5076,
      "gas": 5077,
      "Ġpig": 5078,
      "Ġgol": 5079,
      "Ġsugar": 5080,
      "Ġkh": 5081,
      "ocol": 5082,
      "Ġpartes": 5083,
      "Ġ2021": 5084,
      "Ġ2022": 5085,
      "Ġhumano": 5086,
      "Ġcontinued": 5087,
      "Ġpressure": 5088,
      "Ġsle": 5089,
      "arca": 5090,
      "unid": 5091,
      "Ġnick": 5092,
      "imientos": 5093,
      "Ġcondic": 5094,
      "Ġcomien": 5095,
      "Ġprin": 5096,
      "Ġpron": 5097,
      "cons": 5098,
      "Ġrefle": 5099,
      "Ġdenmark": 5100,
      "Ġmagaz": 5101,
      "Ġrolling": 5102,
      "Ġhemis": 5103,
      "Ġsuicide": 5104,
      "hood": 5105,
      "Ġhits": 5106,
      "Ġofre": 5107,
      "Ġraz": 5108,
      "ĠperÃŃ": 5109,
      "Ġpercent": 5110,
      "Ġextend": 5111,
      "Ġvolcano": 5112,
      "ĠtamaÃ±o": 5113,
      "Ġens": 5114,
      "aking": 5115,
      "Ġinterest": 5116,
      "Ġ1984": 5117,
      "Ġoperating": 5118,
      "Ġprobably": 5119,
      "Ġposee": 5120,
      "Ġcolumbia": 5121,
      "Ġestablished": 5122,
      "Ġcorrespond": 5123,
      "Ġperforman": 5124,
      "Ġempty": 5125,
      "\").": 5126,
      "35": 5127,
      "gers": 5128,
      "Ġip": 5129,
      "Ġcord": 5130,
      "Ġbeaut": 5131,
      "aped": 5132,
      "Ġopens": 5133,
      "Ġerup": 5134,
      "Ġsentido": 5135,
      "Ġdemocra": 5136,
      "olÃ³gico": 5137,
      "Ġilleg": 5138,
      "Ġottoman": 5139,
      "ding": 5140,
      "oke": 5141,
      "ving": 5142,
      "zÃ³": 5143,
      "urb": 5144,
      "aca": 5145,
      "Ġafg": 5146,
      "Ġfrancia": 5147,
      "Ġedific": 5148,
      "Ġhelps": 5149,
      "Ġorganization": 5150,
      "ĠcanadÃ¡": 5151,
      "Ġbaby": 5152,
      "Ġglobal": 5153,
      "eg": 5154,
      "Ġdol": 5155,
      "Ġchief": 5156,
      "Ġmars": 5157,
      "ulares": 5158,
      "Ġswitz": 5159,
      "Ġequal": 5160,
      "Ġnuevas": 5161,
      "gres": 5162,
      "erc": 5163,
      "Ġsor": 5164,
      "Ġmm": 5165,
      "Ġvie": 5166,
      "Ġquite": 5167,
      "Ġkid": 5168,
      "acing": 5169,
      "Ġmeat": 5170,
      "Ġcontro": 5171,
      "Ġcenturies": 5172,
      "Ġdefeats": 5173,
      "Ġsiglos": 5174,
      "Ġkorean": 5175,
      "urrican": 5176,
      "Ġtai": 5177,
      "Ġhus": 5178,
      "Ġnin": 5179,
      "Ġenz": 5180,
      "Ġstage": 5181,
      "bern": 5182,
      "Ġapoy": 5183,
      "Ġgramm": 5184,
      "Ġ64": 5185,
      "riage": 5186,
      "Ġcolony": 5187,
      "Ġhitler": 5188,
      "Ġdamage": 5189,
      "Ġassociation": 5190,
      "lines": 5191,
      "Ġach": 5192,
      "Ġly": 5193,
      "estic": 5194,
      "Ġrelaciones": 5195,
      "Ġeverything": 5196,
      "Ġproblemas": 5197,
      "Ġruns": 5198,
      "Ġturkey": 5199,
      "Ġalbums": 5200,
      "ĠlÃŃnea": 5201,
      "Ġacabo": 5202,
      "Ġalcohol": 5203,
      "nic": 5204,
      "vo": 5205,
      "Ġba": 5206,
      "amento": 5207,
      "Ġreally": 5208,
      "Ġrace": 5209,
      "iago": 5210,
      "Ġagr": 5211,
      "Ġactress": 5212,
      "Ġnews": 5213,
      "ĠcreaciÃ³n": 5214,
      "Ġweight": 5215,
      "Ġattract": 5216,
      "Ġconflict": 5217,
      "Ġdefeated": 5218,
      "Ġolympic": 5219,
      "Ġvalenciana": 5220,
      "ĠandalucÃŃa": 5221,
      "39": 5222,
      "blo": 5223,
      "ancy": 5224,
      "Ġhurrican": 5225,
      "uros": 5226,
      "Ġcolors": 5227,
      "Ġlibre": 5228,
      "Ġcircu": 5229,
      "Ġclassical": 5230,
      "ography": 5231,
      "Ġrevolutionary": 5232,
      "Ġrespecto": 5233,
      "ĠeconÃ³mica": 5234,
      "Ġpesar": 5235,
      "Ġtechnology": 5236,
      "Ġmexican": 5237,
      "70": 5238,
      "Ġoh": 5239,
      "Ġopt": 5240,
      "edral": 5241,
      "amos": 5242,
      "Ġreasons": 5243,
      "Ġpare": 5244,
      "ajes": 5245,
      "Ġfeatures": 5246,
      "Ġ737": 5247,
      "Ġ1942": 5248,
      "Ġaddress": 5249,
      "Ġobjeto": 5250,
      "Ġokay": 5251,
      "Ġappointment": 5252,
      "Ġmuerte": 5253,
      "band": 5254,
      "kh": 5255,
      "sc": 5256,
      "Ġhub": 5257,
      "icks": 5258,
      "Ġreduc": 5259,
      "cla": 5260,
      "Ġmarc": 5261,
      "Ġaccess": 5262,
      "Ġlikely": 5263,
      "Ġartist": 5264,
      "Ġfilos": 5265,
      "Ġtells": 5266,
      "Ġsecurity": 5267,
      "38": 5268,
      "eing": 5269,
      "iend": 5270,
      "pes": 5271,
      "rd": 5272,
      "Ġvista": 5273,
      "Ġcharg": 5274,
      "unta": 5275,
      "Ġreserv": 5276,
      "Ġflores": 5277,
      "uesta": 5278,
      "Ġlots": 5279,
      "Ġtowns": 5280,
      "Ġweeks": 5281,
      "Ġprivate": 5282,
      "Ġincorpor": 5283,
      "asa": 5284,
      "also": 5285,
      "rez": 5286,
      "Ġfert": 5287,
      "atory": 5288,
      "Ġgh": 5289,
      "allas": 5290,
      "Ġont": 5291,
      "Ġmembran": 5292,
      "Ġestadounid": 5293,
      "Ġukra": 5294,
      "Ġbroadcast": 5295,
      "Ġhawai": 5296,
      "rison": 5297,
      "Ġlink": 5298,
      "Ġfra": 5299,
      "Ġanterior": 5300,
      "Ġella": 5301,
      "Ġju": 5302,
      "agu": 5303,
      "Ã±os": 5304,
      "Ġpoll": 5305,
      "Ġinvad": 5306,
      "cape": 5307,
      "Ġlongitud": 5308,
      "Ġuniversal": 5309,
      "Ġfuera": 5310,
      "ledge": 5311,
      "Ġconocimiento": 5312,
      "Ġpasseng": 5313,
      "Ã¡cter": 5314,
      "Ġmoment": 5315,
      "Ġcruz": 5316,
      "Ġcovered": 5317,
      "Ġwrong": 5318,
      "Ġswitzerland": 5319,
      "cin": 5320,
      "rÃ³n": 5321,
      "anas": 5322,
      "Ġgall": 5323,
      "iera": 5324,
      "Ġelections": 5325,
      "Ġminist": 5326,
      "ĠtenÃŃa": 5327,
      "Ġcontrolled": 5328,
      "Ġnaturaleza": 5329,
      "Ġoperation": 5330,
      "Ġactualidad": 5331,
      "Ġexperim": 5332,
      "Ġtreatment": 5333,
      "Ġmasa": 5334,
      "Ġberlin": 5335,
      "Ġmercury": 5336,
      "Ġpalabra": 5337,
      "Ġfavor": 5338,
      "Ġfurther": 5339,
      "ĠinglÃ©s": 5340,
      "wing": 5341,
      "anza": 5342,
      "Ġlith": 5343,
      "iti": 5344,
      "ĠanÃ¡l": 5345,
      "Ġindones": 5346,
      "Ġcapacidad": 5347,
      "Ġ1962": 5348,
      "Ġespecial": 5349,
      "Ġsympt": 5350,
      "Ġdejar": 5351,
      "Ġfabric": 5352,
      "acimiento": 5353,
      "ĠÃ¡rbol": 5354,
      "Ġafghan": 5355,
      "99": 5356,
      "bar": 5357,
      "Ġcens": 5358,
      "Ġsie": 5359,
      "icles": 5360,
      "utos": 5361,
      "Ġcanal": 5362,
      "ĠcarÃ¡cter": 5363,
      "Ġrecent": 5364,
      "Ġ1961": 5365,
      "Ġintent": 5366,
      "Ġplanets": 5367,
      "Ã©ticos": 5368,
      "Ġcamino": 5369,
      "Ġproductos": 5370,
      "Ġsantiago": 5371,
      "Ġelectricity": 5372,
      "ÃŃfica": 5373,
      "ĠevoluciÃ³n": 5374,
      "Ġsupreme": 5375,
      "ĠenseÃ±": 5376,
      "cing": 5377,
      "rend": 5378,
      "Ġswe": 5379,
      "orb": 5380,
      "itas": 5381,
      "Ġring": 5382,
      "rav": 5383,
      "ogo": 5384,
      "inton": 5385,
      "Ġ45": 5386,
      "azz": 5387,
      "ĠposiciÃ³n": 5388,
      "Ġ1963": 5389,
      "Ġgrowth": 5390,
      "Ġcritic": 5391,
      "Ġgarden": 5392,
      "iop": 5393,
      "iado": 5394,
      "anes": 5395,
      "Ġface": 5396,
      "Ġans": 5397,
      "amÃ©rica": 5398,
      "eler": 5399,
      "Ġbob": 5400,
      "Ġweak": 5401,
      "Ġcorpor": 5402,
      "Ġsimply": 5403,
      "Ġsociales": 5404,
      "Ġastrol": 5405,
      "Ġutiliza": 5406,
      "ylv": 5407,
      "Ġdiamantes": 5408,
      "rupt": 5409,
      "Ġpuebl": 5410,
      "Ġsplit": 5411,
      "Ġenfermed": 5412,
      "nis": 5413,
      "Ġsar": 5414,
      "Ġwaves": 5415,
      "Ġfair": 5416,
      "Ġfoss": 5417,
      "Ġsuele": 5418,
      "apar": 5419,
      "Ġinterv": 5420,
      "Ã¡nico": 5421,
      "Ġcasos": 5422,
      "ÃŃstico": 5423,
      "olÃ³gica": 5424,
      "Ġhindu": 5425,
      "Ġalcaloides": 5426,
      "Ġalicante": 5427,
      "nos": 5428,
      "Ġliver": 5429,
      "Ġflood": 5430,
      "Ġtower": 5431,
      "ett": 5432,
      "agon": 5433,
      "uper": 5434,
      "ĠformaciÃ³n": 5435,
      "Ġmoves": 5436,
      "Ġminutes": 5437,
      "Ġcopper": 5438,
      "Ġcabe": 5439,
      "Ġchemist": 5440,
      "Ġstopped": 5441,
      "odox": 5442,
      "Ġpowers": 5443,
      "Ġgest": 5444,
      "Ġrid": 5445,
      "uted": 5446,
      "Ġasked": 5447,
      "ockey": 5448,
      "Ġpho": 5449,
      "Ġguad": 5450,
      "ificar": 5451,
      "ertos": 5452,
      "Ġ150": 5453,
      "Ġmenudo": 5454,
      "ĠdivisiÃ³n": 5455,
      "Ġremain": 5456,
      "Ġgreatest": 5457,
      "Ġnaturales": 5458,
      "ĠcatÃ³l": 5459,
      "Ġpresentan": 5460,
      "Ġoccurs": 5461,
      "Ġcathedral": 5462,
      "Ġlenguas": 5463,
      "gree": 5464,
      "tra": 5465,
      "tica": 5466,
      "inct": 5467,
      "enes": 5468,
      "urales": 5469,
      "Ã¡fic": 5470,
      "oper": 5471,
      "iff": 5472,
      "Ġexc": 5473,
      "Ġporque": 5474,
      "Ġ1977": 5475,
      "Ġambos": 5476,
      "Ġdescribed": 5477,
      "Ġcaptured": 5478,
      "Ġconditions": 5479,
      "Ġbacterias": 5480,
      "Ġcry": 5481,
      "iso": 5482,
      "izado": 5483,
      "Ġrod": 5484,
      "Ġcapit": 5485,
      "Ġbring": 5486,
      "Ġfuncion": 5487,
      "Ġclima": 5488,
      "Ġreached": 5489,
      "Ġdigital": 5490,
      "Ġ||": 5491,
      "Ġstructure": 5492,
      "68": 5493,
      "called": 5494,
      "pp": 5495,
      "oral": 5496,
      "reat": 5497,
      "Ġalgo": 5498,
      "astic": 5499,
      "Ġconsid": 5500,
      "Ġbases": 5501,
      "Ġ1949": 5502,
      "Ġspeech": 5503,
      "Ġsteel": 5504,
      "Ġdiferencia": 5505,
      "Ġchurches": 5506,
      "Ġprofund": 5507,
      "Ġmuseo": 5508,
      "Ġislamic": 5509,
      "Ġmuslims": 5510,
      "Ġtar": 5511,
      "Ġanteri": 5512,
      "unci": 5513,
      "Ġvelo": 5514,
      "igen": 5515,
      "Ġjr": 5516,
      "Ġlooks": 5517,
      "Ġjohnson": 5518,
      "Ġfunction": 5519,
      "Ġeveryone": 5520,
      "Ġresults": 5521,
      "Ġdiseases": 5522,
      "Ġpedro": 5523,
      "Ġagricultura": 5524,
      "Ġwidely": 5525,
      "Ġmammals": 5526,
      "fil": 5527,
      "lad": 5528,
      "Ġcerv": 5529,
      "Ġpuntos": 5530,
      "alo": 5531,
      "elph": 5532,
      "Ġwhose": 5533,
      "Ġasim": 5534,
      "Ġcuanto": 5535,
      "Ġvalue": 5536,
      "Ġvalley": 5537,
      "Ġ1959": 5538,
      "Ġcastle": 5539,
      "Ġpropio": 5540,
      "Ġ1918": 5541,
      "Ġbird": 5542,
      "Ġjuego": 5543,
      "Ġsenate": 5544,
      "ĠÃ¡reas": 5545,
      "Ġhuge": 5546,
      "ÃŃficos": 5547,
      "Ġaproximadamente": 5548,
      "Ġfreedom": 5549,
      "water": 5550,
      "Ġhizo": 5551,
      "Ġeyes": 5552,
      "Ġtowards": 5553,
      "Ġvin": 5554,
      "Ġmanif": 5555,
      "Ġgoal": 5556,
      "Ġ32": 5557,
      "Ġ1948": 5558,
      "Ġdogs": 5559,
      "ĠmediterrÃ¡n": 5560,
      "Ġmiembros": 5561,
      "ylvania": 5562,
      "500": 5563,
      "rat": 5564,
      "Ġhier": 5565,
      "Ġbeach": 5566,
      "Ġallows": 5567,
      "Ġregional": 5568,
      "Ġ400": 5569,
      "Ġ1966": 5570,
      "Ġphilipp": 5571,
      "Ġglass": 5572,
      "Ġcompletely": 5573,
      "Ġsuffer": 5574,
      "Ġevidence": 5575,
      "Ġbodies": 5576,
      "Ġarthur": 5577,
      "Ġâ": 5578,
      "Ġcod": 5579,
      "Ġsides": 5580,
      "Ġdice": 5581,
      "amientos": 5582,
      "Ġcars": 5583,
      "Ġroom": 5584,
      "Ġdisord": 5585,
      "ĠprÃ¡ctica": 5586,
      "Ġpermite": 5587,
      "Ġintroduced": 5588,
      "Ġreprodu": 5589,
      "Ġchampionship": 5590,
      "Ġcatedral": 5591,
      "ĠfrancÃ©s": 5592,
      "67": 5593,
      "Ġcust": 5594,
      "rey": 5595,
      "ciona": 5596,
      "Ġalqu": 5597,
      "souri": 5598,
      "Ġpartido": 5599,
      "Ãºa": 5600,
      "Ġrot": 5601,
      "Ġserb": 5602,
      "Ġinvasion": 5603,
      "Ġcasa": 5604,
      "Ġepisode": 5605,
      "ĠcomenzÃ³": 5606,
      "bus": 5607,
      "Ã¨": 5608,
      "ĠcÃ³m": 5609,
      "Ġmental": 5610,
      "Ġanat": 5611,
      "ĠrÃ¡p": 5612,
      "Ġmayores": 5613,
      "Ġlibert": 5614,
      "Ġcommerci": 5615,
      "Ġfuente": 5616,
      "Ġdrive": 5617,
      "Ġexped": 5618,
      "Ġowned": 5619,
      "Ã¡ticas": 5620,
      "Ġactivist": 5621,
      "Ġfalls": 5622,
      "ĠpelÃŃculas": 5623,
      "Ġcrown": 5624,
      "ĠnÃºcleo": 5625,
      "Ġslavery": 5626,
      "ming": 5627,
      "ww": 5628,
      "Ġfine": 5629,
      "Ġgender": 5630,
      "Ġelim": 5631,
      "Ġconfer": 5632,
      "Ġcoff": 5633,
      "ella": 5634,
      "Ġnorway": 5635,
      "Ġ1947": 5636,
      "Ġending": 5637,
      "Ġpropia": 5638,
      "Ġpublish": 5639,
      "Ġreturned": 5640,
      "Ġmissouri": 5641,
      "Ġdistintas": 5642,
      "Ġpueblo": 5643,
      "rados": 5644,
      "Ġhij": 5645,
      "Ġseat": 5646,
      "Ġorch": 5647,
      "Ġworldwide": 5648,
      "Ġsmith": 5649,
      "Ġmusician": 5650,
      "Ġ1936": 5651,
      "ĠversiÃ³n": 5652,
      "Ġadvent": 5653,
      "Ġeffects": 5654,
      "Ġannounces": 5655,
      "Ġcondiciones": 5656,
      "iber": 5657,
      "ued": 5658,
      "Ġsierra": 5659,
      "onde": 5660,
      "Ġ1943": 5661,
      "Ġdemon": 5662,
      "Ġbreath": 5663,
      "Ġshowed": 5664,
      "Ġgiving": 5665,
      "como": 5666,
      "Ġmassac": 5667,
      "Ġgolden": 5668,
      "ĠquedÃ³": 5669,
      "Ġpertene": 5670,
      "48": 5671,
      "yer": 5672,
      "Ġul": 5673,
      "Ġpon": 5674,
      "Ġblo": 5675,
      "Ġfiel": 5676,
      "Ġfaster": 5677,
      "adium": 5678,
      "etas": 5679,
      "ogen": 5680,
      "Ġartists": 5681,
      "Ġexpand": 5682,
      "Ġresultado": 5683,
      "Ġsiguientes": 5684,
      "Ġbehind": 5685,
      "ĠinvestigaciÃ³n": 5686,
      "Ġalimentos": 5687,
      "fall": 5688,
      "pas": 5689,
      "put": 5690,
      "Ġteles": 5691,
      "Ġdna": 5692,
      "Ġpin": 5693,
      "Ġheight": 5694,
      "Ġmarx": 5695,
      "ĠserÃŃa": 5696,
      "Ġsiete": 5697,
      "Ġblock": 5698,
      "Ġnorthwest": 5699,
      "Ġ160": 5700,
      "atorio": 5701,
      "Ġdeclared": 5702,
      "Ġinfluencia": 5703,
      "Ġvictory": 5704,
      "ĠÃºltimos": 5705,
      "Ġphilosophy": 5706,
      "ew": 5707,
      "Ġsang": 5708,
      "orf": 5709,
      "isions": 5710,
      "asing": 5711,
      "ald": 5712,
      "umn": 5713,
      "agn": 5714,
      "osexual": 5715,
      "Ġgrown": 5716,
      "Ġvalle": 5717,
      "plement": 5718,
      "Ġvenezuela": 5719,
      "Ġsymptoms": 5720,
      "jar": 5721,
      "Ġod": 5722,
      "Ġree": 5723,
      "ills": 5724,
      "Ġcarlos": 5725,
      "Ġconten": 5726,
      "Ġinfl": 5727,
      "Ġdifference": 5728,
      "Ġ1939": 5729,
      "Ġlocated": 5730,
      "Ġlibr": 5731,
      "Ġcerem": 5732,
      "Ġattacked": 5733,
      "Ġhorse": 5734,
      "Ġliterature": 5735,
      "ancias": 5736,
      "Ġcristianos": 5737,
      "Ġontario": 5738,
      "her": 5739,
      "Ã§": 5740,
      "Ġhockey": 5741,
      "Ġchann": 5742,
      "Ġcuyo": 5743,
      "Ġboys": 5744,
      "Ġresid": 5745,
      "phy": 5746,
      "Ġfinland": 5747,
      "Ġhaber": 5748,
      "Ġcorri": 5749,
      "Ġexpans": 5750,
      "Ġturk": 5751,
      "ÃŃmp": 5752,
      "Ġdesigned": 5753,
      "ĠeconÃ³mico": 5754,
      "Ġoblig": 5755,
      "life": 5756,
      "itation": 5757,
      "Ġeye": 5758,
      "Ġoffer": 5759,
      "Ġnic": 5760,
      "elas": 5761,
      "ĠelÃ©ct": 5762,
      "Ġcarn": 5763,
      "Ġmedida": 5764,
      "Ġpret": 5765,
      "Ġupper": 5766,
      "Ġairlines": 5767,
      "ÃŃns": 5768,
      "Ġutilizan": 5769,
      "Ġmoroc": 5770,
      "Ġcolonial": 5771,
      "Ġinfluence": 5772,
      "Ġturned": 5773,
      "Ġpaint": 5774,
      "ranean": 5775,
      "Ġgregor": 5776,
      "36": 5777,
      "Ġbil": 5778,
      "Ġfij": 5779,
      "atar": 5780,
      "adelph": 5781,
      "Ġunlike": 5782,
      "Ġjazz": 5783,
      "iaciÃ³n": 5784,
      "Ġprue": 5785,
      "Ġplaced": 5786,
      "ogÃŃa": 5787,
      "Ġperd": 5788,
      "Ġjobs": 5789,
      "Ġeditor": 5790,
      "Ġvariet": 5791,
      "Ġsingap": 5792,
      "Ġmadre": 5793,
      "Ġinstruments": 5794,
      "Ġpremier": 5795,
      "Ġorganisms": 5796,
      "Ġcomedy": 5797,
      "Ġmitad": 5798,
      "Ġdangerous": 5799,
      "ÃŃnsula": 5800,
      "body": 5801,
      "inian": 5802,
      "Ġthrone": 5803,
      "Ġfit": 5804,
      "Ġfiction": 5805,
      "Ġ()": 5806,
      "Ġrar": 5807,
      "igos": 5808,
      "Ġjim": 5809,
      "Ġoro": 5810,
      "acciÃ³n": 5811,
      "Ġboeing": 5812,
      "Ġantonio": 5813,
      "Ġdistancia": 5814,
      "Ġinstal": 5815,
      "Ġsteph": 5816,
      "Ġcomposer": 5817,
      "coln": 5818,
      "Ġprofessional": 5819,
      "Ġatomic": 5820,
      "Ġlady": 5821,
      "Ġhurricane": 5822,
      "Ġpueblos": 5823,
      "Ġvelocid": 5824,
      "Ġdc": 5825,
      "Ġpack": 5826,
      "Ġnat": 5827,
      "cide": 5828,
      "Ġlakes": 5829,
      "Ġreun": 5830,
      "ersey": 5831,
      "aya": 5832,
      "oto": 5833,
      "Ġabsol": 5834,
      "Ġfox": 5835,
      "Ġgrant": 5836,
      "Ġhumanos": 5837,
      "Ġphiladelph": 5838,
      "adesh": 5839,
      "Ġfuerte": 5840,
      "Ġvillage": 5841,
      "ĠtÃ©cnicas": 5842,
      "Ġpalabras": 5843,
      "Ġatmosphere": 5844,
      "Ġcontrovers": 5845,
      "ĠanÃ¡lisis": 5846,
      "fa": 5847,
      "ko": 5848,
      "ni": 5849,
      "Ġunidad": 5850,
      "Ġalbert": 5851,
      "Ã©g": 5852,
      "iform": 5853,
      "Ġaband": 5854,
      "ceso": 5855,
      "achus": 5856,
      "Ġaction": 5857,
      "ordin": 5858,
      "Ġpoison": 5859,
      "ĠcrÃŃt": 5860,
      "Ġlongest": 5861,
      "Ġ1956": 5862,
      "uesto": 5863,
      "Ġcabo": 5864,
      "Ġllegar": 5865,
      "Ġdioxide": 5866,
      "part": 5867,
      "yan": 5868,
      "Ġmast": 5869,
      "Ġom": 5870,
      "Ġfell": 5871,
      "Ġhop": 5872,
      "aph": 5873,
      "Ġnotable": 5874,
      "inea": 5875,
      "ĠhistÃ³ric": 5876,
      "Ġvalores": 5877,
      "Ġchristians": 5878,
      "Ġoxid": 5879,
      "Ġphysic": 5880,
      "Ġpapel": 5881,
      "Ġhands": 5882,
      "Ġmunicipal": 5883,
      "Ġalgorit": 5884,
      "Ġphiladelphia": 5885,
      "iencia": 5886,
      "oid": 5887,
      "Ġcrop": 5888,
      "Ġcatch": 5889,
      "Ġlis": 5890,
      "Ġchap": 5891,
      "riz": 5892,
      "elled": 5893,
      "cour": 5894,
      "Ġmodelo": 5895,
      "liest": 5896,
      "Ġjulio": 5897,
      "Ġcampe": 5898,
      "Ġsilver": 5899,
      "Ġincluyen": 5900,
      "ĠÃºnico": 5901,
      "Ġmathematics": 5902,
      "ĠperÃŃodo": 5903,
      "Ġafghanistan": 5904,
      "Ġts": 5905,
      "ises": 5906,
      "Ġwed": 5907,
      "unk": 5908,
      "amental": 5909,
      "ctic": 5910,
      "Ġestrel": 5911,
      "Ġplate": 5912,
      "ierto": 5913,
      "Ġrepresenta": 5914,
      "Ġpenns": 5915,
      "Ġcomunidades": 5916,
      "Ġlincoln": 5917,
      "Ġphilosopher": 5918,
      "Ġopposite": 5919,
      "Ġaerop": 5920,
      "Ġcarolina": 5921,
      "cen": 5922,
      "eas": 5923,
      "iology": 5924,
      "Ġtheor": 5925,
      "Ġpere": 5926,
      "Ġlogr": 5927,
      "Ġyet": 5928,
      "Ġstore": 5929,
      "Ġabort": 5930,
      "Ġindic": 5931,
      "Ġmedie": 5932,
      "ologists": 5933,
      "Ġcultiv": 5934,
      "Ġprincipio": 5935,
      "Ġdiagn": 5936,
      "Ġdetect": 5937,
      "Ġtelescop": 5938,
      "Ġconcepto": 5939,
      "igan": 5940,
      "etes": 5941,
      "ability": 5942,
      "Ġcuad": 5943,
      "aturas": 5944,
      "Ġhumana": 5945,
      "Ġdistingu": 5946,
      "posit": 5947,
      "Ġ1954": 5948,
      "Ġ1933": 5949,
      "Ġcomplete": 5950,
      "Ġconcert": 5951,
      "Ġmediterranean": 5952,
      "53": 5953,
      "Âº": 5954,
      "Ã¤": 5955,
      "Ġsund": 5956,
      "osen": 5957,
      "urre": 5958,
      "ims": 5959,
      "Ġcoming": 5960,
      "Ġstan": 5961,
      "Ġpruss": 5962,
      "Ġagree": 5963,
      "Ġmarriage": 5964,
      "ierras": 5965,
      "Ġentertain": 5966,
      "Ġindo": 5967,
      "Ġbarb": 5968,
      "bean": 5969,
      "olÃ³gicos": 5970,
      "Ġtrying": 5971,
      "Ġlenguaje": 5972,
      "Ġarquitectura": 5973,
      "Ġalphabet": 5974,
      "Ġsingapore": 5975,
      "Ã¡st": 5976,
      "Ġvert": 5977,
      "Ã¡nd": 5978,
      "Ġtrailer": 5979,
      "Ġ48": 5980,
      "Ġtransfer": 5981,
      "Ġsupposed": 5982,
      "Ġsigns": 5983,
      "Ġsky": 5984,
      "Ġversions": 5985,
      "Ã£": 5986,
      "Ġdiet": 5987,
      "Ġpiano": 5988,
      "alia": 5989,
      "Ġhart": 5990,
      "ciente": 5991,
      "etts": 5992,
      "ocks": 5993,
      "Ġteeth": 5994,
      "Ġmouth": 5995,
      "Ġherman": 5996,
      "Ġfamilies": 5997,
      "Ġservicios": 5998,
      "ĠpenÃŃnsula": 5999,
      "Ġromania": 6000,
      "Ġfrente": 6001,
      "Ġperformed": 6002,
      "Ġbibli": 6003,
      "Ġtheatre": 6004,
      "Ġperformance": 6005,
      "Ġconsidera": 6006,
      "',": 6007,
      "bes": 6008,
      "kin": 6009,
      "Ġsick": 6010,
      "Ġwik": 6011,
      "Ġjac": 6012,
      "Ġjersey": 6013,
      "iful": 6014,
      "Ġclinton": 6015,
      "Ġcuya": 6016,
      "Ġeleg": 6017,
      "Ġinteract": 6018,
      "ĠinterÃ©s": 6019,
      "Ġmoz": 6020,
      "Ġprovoc": 6021,
      "Ġsouthwest": 6022,
      "Ġsaliendo": 6023,
      "Ġlearned": 6024,
      "Ġeasier": 6025,
      "Ġmosc": 6026,
      "57": 6027,
      "Ġpied": 6028,
      "isc": 6029,
      "reds": 6030,
      "Ġfaci": 6031,
      "Ġtoled": 6032,
      "olid": 6033,
      "acen": 6034,
      "Ġshare": 6035,
      "izar": 6036,
      "Ġresident": 6037,
      "Ġmetals": 6038,
      "Ġopin": 6039,
      "Ġdirectly": 6040,
      "Ġchemicals": 6041,
      "Ġconnected": 6042,
      "cepciÃ³n": 6043,
      "49": 6044,
      "Ġcm": 6045,
      "Ġsagan": 6046,
      "onso": 6047,
      "Ġtox": 6048,
      "ishop": 6049,
      "encial": 6050,
      "Ġprimero": 6051,
      "Ġdefend": 6052,
      "Ġvalencia": 6053,
      "Ġ1946": 6054,
      "Ġfunciones": 6055,
      "Ġluis": 6056,
      "Ġcurrently": 6057,
      "Ġderechos": 6058,
      "Ġhundreds": 6059,
      "Ġcareer": 6060,
      "Ġahor": 6061,
      "Ġdomestic": 6062,
      "Ġcereb": 6063,
      "Ġsede": 6064,
      "Ġexecuted": 6065,
      "Ġinsects": 6066,
      "achusetts": 6067,
      "32": 6068,
      "arqu": 6069,
      "Ġko": 6070,
      "Ġpray": 6071,
      "ients": 6072,
      "Ġpresenta": 6073,
      "Ġgreater": 6074,
      "Ġdispon": 6075,
      "Ġexistencia": 6076,
      "ĠtradiciÃ³n": 6077,
      "Ġpalace": 6078,
      "Ġopera": 6079,
      "Ġllamo": 6080,
      "Ġconocida": 6081,
      "Ġfundament": 6082,
      "Ġfuerza": 6083,
      "Ġpennsylvania": 6084,
      "ration": 6085,
      "Ġpit": 6086,
      "Ġmist": 6087,
      "Ġbaj": 6088,
      "olas": 6089,
      "Ġrare": 6090,
      "Ġlev": 6091,
      "Ġmanuf": 6092,
      "Ġparties": 6093,
      "Ġemot": 6094,
      "Ġsaf": 6095,
      "Ġarts": 6096,
      "Ġdecre": 6097,
      "Ġremains": 6098,
      "Ġmassachusetts": 6099,
      "Ġknowledge": 6100,
      "Ġboliv": 6101,
      "Ġgirl": 6102,
      "grees": 6103,
      "Ġubic": 6104,
      "Ġmujeres": 6105,
      "Ġsulf": 6106,
      "iled": 6107,
      "Ġenf": 6108,
      "Ġvel": 6109,
      "cher": 6110,
      "Ġapolo": 6111,
      "Ġ38": 6112,
      "Ã¡ng": 6113,
      "Ġsonido": 6114,
      "Ġproductor": 6115,
      "Ġsalud": 6116,
      "Ġautores": 6117,
      "Ġprograma": 6118,
      "Ġholds": 6119,
      "Ġmateria": 6120,
      "Ġvirt": 6121,
      "Ġmission": 6122,
      "Ġethnic": 6123,
      "hammad": 6124,
      "Ġcoffee": 6125,
      "Ġlibrary": 6126,
      "Ġmanufact": 6127,
      "=\"": 6128,
      "more": 6129,
      "ners": 6130,
      "zos": 6131,
      "ĠcÃ¡n": 6132,
      "Ġdeporte": 6133,
      "Ġdegrees": 6134,
      "Ġhu": 6135,
      "Ġhora": 6136,
      "istics": 6137,
      "Ġhear": 6138,
      "Ġ39": 6139,
      "Ġprefer": 6140,
      "icted": 6141,
      "Ġprovid": 6142,
      "Ġrealidad": 6143,
      "embly": 6144,
      "Ġjustice": 6145,
      "Ġexpress": 6146,
      "Ġbands": 6147,
      "Ġnuevos": 6148,
      "Ġbaseball": 6149,
      "Ġfundamental": 6150,
      "Ġnegative": 6151,
      "ĠÃºltima": 6152,
      "Ġmemory": 6153,
      "Ġchristianity": 6154,
      "Ġimperial": 6155,
      "Ġagreement": 6156,
      "Ġfranklin": 6157,
      "Ġmolecular": 6158,
      "ĠfÃŃsica": 6159,
      "Ġcaribbean": 6160,
      "ĠfenÃ³m": 6161,
      "Ġbuddh": 6162,
      "69": 6163,
      "ĠtÃŃp": 6164,
      "Ġhijo": 6165,
      "Ġgab": 6166,
      "Ġali": 6167,
      "ranj": 6168,
      "Ġimplement": 6169,
      "Ġserious": 6170,
      "Ġpalest": 6171,
      "Ġlibros": 6172,
      "Ġloaded": 6173,
      "Ġdiscovery": 6174,
      "ĠÃºnica": 6175,
      "rimonio": 6176,
      "Ġinvolved": 6177,
      "Ã£o": 6178,
      "34": 6179,
      "gÃ³n": 6180,
      "Ġthus": 6181,
      "Ġsense": 6182,
      "Ġdado": 6183,
      "Ġdecide": 6184,
      "Ġhong": 6185,
      "Ġelabor": 6186,
      "Ġsets": 6187,
      "acio": 6188,
      "Ġuser": 6189,
      "Ġthanks": 6190,
      "Ġcultures": 6191,
      "ursos": 6192,
      "Ġclean": 6193,
      "ĠolÃŃmp": 6194,
      "Ġexactly": 6195,
      "ĠÃ³rgan": 6196,
      "Ġmetropolitan": 6197,
      "Ġphoen": 6198,
      "Ġthick": 6199,
      "Ġcav": 6200,
      "Ġsop": 6201,
      "Ġnaci": 6202,
      "Ġrus": 6203,
      "Ġ1900": 6204,
      "Ġchosen": 6205,
      "Ġfirm": 6206,
      "Ġempl": 6207,
      "ĠindÃŃgen": 6208,
      "vey": 6209,
      "Ġejecut": 6210,
      "Ġ1922": 6211,
      "Ġassembly": 6212,
      "house": 6213,
      "Ġmolecules": 6214,
      "Ġdistintos": 6215,
      "hy": 6216,
      "ule": 6217,
      "Ġtu": 6218,
      "ĠtÃŃt": 6219,
      "Ġaus": 6220,
      "orÃŃas": 6221,
      "Ġmong": 6222,
      "Ġdegree": 6223,
      "utions": 6224,
      "Ġquar": 6225,
      "Ġexclus": 6226,
      "apes": 6227,
      "ĠmarÃŃa": 6228,
      "Ġadqu": 6229,
      "resiÃ³n": 6230,
      "Ġpoly": 6231,
      "Ġdecor": 6232,
      "adoras": 6233,
      "pected": 6234,
      "Ġindependencia": 6235,
      "timore": 6236,
      "Ġtrial": 6237,
      "Ġmaterials": 6238,
      "Ġethiop": 6239,
      "Ġinhab": 6240,
      "Ġnumerosos": 6241,
      "Ġalberta": 6242,
      "Ġbibliotec": 6243,
      "ucion": 6244,
      "Ġign": 6245,
      "inum": 6246,
      "Ġcromos": 6247,
      "ream": 6248,
      "Ġfiest": 6249,
      "osas": 6250,
      "Ġga": 6251,
      "Ġconoc": 6252,
      "Ġvall": 6253,
      "Ġvien": 6254,
      "Ġcole": 6255,
      "Ġneur": 6256,
      "Ġleaving": 6257,
      "Ãºt": 6258,
      "Ġcontract": 6259,
      "Ġdivor": 6260,
      "Ġdirection": 6261,
      "Ġopening": 6262,
      "Ġdiscuss": 6263,
      "Ġwalls": 6264,
      "Ġmagazine": 6265,
      "render": 6266,
      "Ġ)": 6267,
      "asc": 6268,
      "olar": 6269,
      "odore": 6270,
      "Ġexterior": 6271,
      "Ġcarl": 6272,
      "Ġrocks": 6273,
      "Ġempe": 6274,
      "Ġformal": 6275,
      "Ġverdad": 6276,
      "intendo": 6277,
      "Ġconoce": 6278,
      "ÃŃmbol": 6279,
      "Ġoxford": 6280,
      "Ġgases": 6281,
      "ĠÃ©x": 6282,
      "Ġdepending": 6283,
      "Ġhoriz": 6284,
      "Ġliberal": 6285,
      "Ġobjetos": 6286,
      "Ġtaught": 6287,
      "Ġquestion": 6288,
      "fish": 6289,
      "rum": 6290,
      "into": 6291,
      "Ġsost": 6292,
      "ĠdÃ©": 6293,
      "Ġpath": 6294,
      "Ġfond": 6295,
      "lets": 6296,
      "usion": 6297,
      "ÃŃd": 6298,
      "Ġstal": 6299,
      "andal": 6300,
      "Ġash": 6301,
      "ueve": 6302,
      "Ġabund": 6303,
      "perm": 6304,
      "Ġspent": 6305,
      "Ġmete": 6306,
      "Ġleads": 6307,
      "atherine": 6308,
      "Ġ1917": 6309,
      "Ġsocialist": 6310,
      "Ġsitting": 6311,
      "Ġforests": 6312,
      "Ġolympics": 6313,
      "Ġcastellano": 6314,
      "Ġbelgium": 6315,
      "ĠdÃŃgame": 6316,
      "55": 6317,
      "Ġcree": 6318,
      "Ġwat": 6319,
      "Ġhero": 6320,
      "Ġhamm": 6321,
      "Ġhurt": 6322,
      "ads": 6323,
      "usal": 6324,
      "Ġenero": 6325,
      "ctores": 6326,
      "Ġsuces": 6327,
      "Ġkings": 6328,
      "ify": 6329,
      "fera": 6330,
      "Ġinfin": 6331,
      "velt": 6332,
      "Ġuseful": 6333,
      "Ġuniversities": 6334,
      "box": 6335,
      "ĠpodrÃŃa": 6336,
      "Ġcircle": 6337,
      "Ġcombin": 6338,
      "Ġdevice": 6339,
      "Ġbotan": 6340,
      "Ġlevels": 6341,
      "tesis": 6342,
      "Ġproperty": 6343,
      "Ġlayer": 6344,
      "Ġlaunched": 6345,
      "Ġguadal": 6346,
      "Ãºtbol": 6347,
      "inces": 6348,
      "Ġwo": 6349,
      "Ġfix": 6350,
      "ĠfÃºtbol": 6351,
      "amas": 6352,
      "esta": 6353,
      "Ġestad": 6354,
      "Ġ36": 6355,
      "Ġupon": 6356,
      "Ġartific": 6357,
      "Ġfuel": 6358,
      "Ġextranj": 6359,
      "Ã³mico": 6360,
      "Ġequival": 6361,
      "ĠproteÃŃn": 6362,
      "Ġbaltimore": 6363,
      "Ġtrip": 6364,
      "Ġmotion": 6365,
      "Ġvoice": 6366,
      "54": 6367,
      "uz": 6368,
      "Ġ<": 6369,
      "Ġcot": 6370,
      "Ġnintendo": 6371,
      "Ġconte": 6372,
      "empor": 6373,
      "teras": 6374,
      "illed": 6375,
      "Ġatlet": 6376,
      "aka": 6377,
      "Ġplata": 6378,
      "ĠcompaÃ±": 6379,
      "Ġtrata": 6380,
      "Ġcontiene": 6381,
      "ideae": 6382,
      "Ġdoor": 6383,
      "Ġhob": 6384,
      "Ġmeters": 6385,
      "Ġsettle": 6386,
      "Ġeaten": 6387,
      "Ġobjetivo": 6388,
      "Ġprotestant": 6389,
      "Ġmixed": 6390,
      "ĠÃŃn": 6391,
      "Ġaument": 6392,
      "Ġcore": 6393,
      "ali": 6394,
      "Ġbast": 6395,
      "Ġful": 6396,
      "Ġnuest": 6397,
      "Ġsearch": 6398,
      "ubre": 6399,
      "Ġgobern": 6400,
      "Ġroose": 6401,
      "Ġflow": 6402,
      "Ġpole": 6403,
      "Ġpair": 6404,
      "Ġromans": 6405,
      "Ġ1958": 6406,
      "Ġstring": 6407,
      "Ġmateriales": 6408,
      "Ġdeclares": 6409,
      "alizaciÃ³n": 6410,
      "Ġarrested": 6411,
      "ĠmÃ©d": 6412,
      "Ġcolumbus": 6413,
      "Ġaccident": 6414,
      "Ġvelocidad": 6415,
      "fam": 6416,
      "ĠcÃ¡": 6417,
      "Ġinaug": 6418,
      "ests": 6419,
      "Ġstadium": 6420,
      "Ġespect": 6421,
      "Ã©m": 6422,
      "Ġimpl": 6423,
      "Ġcaes": 6424,
      "Ġtemp": 6425,
      "Ġpolitics": 6426,
      "Ġcontinue": 6427,
      "Ġ1927": 6428,
      "Ġholly": 6429,
      "Ġcloud": 6430,
      "Ġarabic": 6431,
      "Ġreported": 6432,
      "Ġoriental": 6433,
      "Ġwebsite": 6434,
      "Ġandorra": 6435,
      "Ġsiege": 6436,
      "Ġtoledo": 6437,
      "Ġroosevelt": 6438,
      "uaciÃ³n": 6439,
      "Ġdoll": 6440,
      "organ": 6441,
      "Ġlie": 6442,
      "Ġmales": 6443,
      "Ġmenci": 6444,
      "Ġgulf": 6445,
      "chas": 6446,
      "ĠrÃŃos": 6447,
      "Ġky": 6448,
      "riÃ³": 6449,
      "Ġamaz": 6450,
      "Ġmayo": 6451,
      "Ġfinally": 6452,
      "Ġfinished": 6453,
      "Ġtransm": 6454,
      "Ġbright": 6455,
      "Ġpattern": 6456,
      "hex": 6457,
      "Ġchoose": 6458,
      "ĠtecnologÃŃa": 6459,
      "Ġbeautiful": 6460,
      "sa": 6461,
      "Ġwa": 6462,
      "rot": 6463,
      "inger": 6464,
      "Ġ1000": 6465,
      "imas": 6466,
      "Ġrings": 6467,
      "Ġprovinces": 6468,
      "Ġ1953": 6469,
      "Ġejemplos": 6470,
      "Ġreferred": 6471,
      "Ġdestaca": 6472,
      "Ġbottom": 6473,
      "Ġborders": 6474,
      "Ġincrease": 6475,
      "Ġgirls": 6476,
      "Ġefecto": 6477,
      "ĠautonomÃŃa": 6478,
      "Ġdiciembre": 6479,
      "Ġsuelen": 6480,
      "Ġillegal": 6481,
      "jes": 6482,
      "Ġcze": 6483,
      "ising": 6484,
      "real": 6485,
      "Ã³st": 6486,
      "Ġunidades": 6487,
      "Ġarran": 6488,
      "Ġcarried": 6489,
      "ĠperÃº": 6490,
      "Ġcreation": 6491,
      "Ġcalidad": 6492,
      "Ġscale": 6493,
      "ĠaÃ±ad": 6494,
      "Ġaustrian": 6495,
      "Ġjohann": 6496,
      "Ġ1914": 6497,
      "Ġnaval": 6498,
      "Ġorganismos": 6499,
      "Ġoctubre": 6500,
      "Ġsucceed": 6501,
      "Ġpeninsula": 6502,
      "Ġmassacre": 6503,
      "31": 6504,
      "Ġeating": 6505,
      "ciendo": 6506,
      "ston": 6507,
      "Ġacomp": 6508,
      "Ġmob": 6509,
      "Ġscript": 6510,
      "Ġposit": 6511,
      "ĠartÃŃculo": 6512,
      "Ġ1937": 6513,
      "Ġsister": 6514,
      "ĠmontaÃ±": 6515,
      "Ġamounts": 6516,
      "Ġpractic": 6517,
      "Ġrailway": 6518,
      "Ġrisk": 6519,
      "Ġquantum": 6520,
      "Ġphilippines": 6521,
      "most": 6522,
      "Ġere": 6523,
      "Ġconect": 6524,
      "ÃŃl": 6525,
      "Ġestre": 6526,
      "izada": 6527,
      "Ġevil": 6528,
      "Ġprimary": 6529,
      "Ġdrum": 6530,
      "Ġswim": 6531,
      "Ġrepresentatives": 6532,
      "ĠdiseÃ±": 6533,
      "Ġconfederate": 6534,
      "Ġcommercial": 6535,
      "zado": 6536,
      "Ġtiss": 6537,
      "oras": 6538,
      "Ġwave": 6539,
      "Ġnom": 6540,
      "Ġpriest": 6541,
      "Ġabril": 6542,
      "Ġperu": 6543,
      "Ġspend": 6544,
      "Ġformula": 6545,
      "Ġnewton": 6546,
      "Ġsinks": 6547,
      "Ġbasket": 6548,
      "Ġmetros": 6549,
      "Ġ1955": 6550,
      "ĠreligiÃ³n": 6551,
      "Ġwants": 6552,
      "Ġfifth": 6553,
      "Ġsecund": 6554,
      "Ġvacc": 6555,
      "Ġagreed": 6556,
      "Ġexperience": 6557,
      "Ġdimens": 6558,
      "Ġabandon": 6559,
      "len": 6560,
      "Ġisot": 6561,
      "Ġras": 6562,
      "Ġresour": 6563,
      "Ġprecis": 6564,
      "Ġ170": 6565,
      "Ġunderground": 6566,
      "Ġ1929": 6567,
      "Ġproblema": 6568,
      "ĠnÃºmeros": 6569,
      "Ġcapture": 6570,
      "Ġmeasured": 6571,
      "Ġequipo": 6572,
      "Ġmoscow": 6573,
      "lers": 6574,
      "ridge": 6575,
      "via": 6576,
      "Ġlif": 6577,
      "Ġgast": 6578,
      "Ġvuel": 6579,
      "char": 6580,
      "Ġonline": 6581,
      "Ġplas": 6582,
      "Ġshut": 6583,
      "Ġleap": 6584,
      "Ġrow": 6585,
      "Ġcuar": 6586,
      "Ġacts": 6587,
      "rase": 6588,
      "Ġgene": 6589,
      "Ġcharl": 6590,
      "Ġbrand": 6591,
      "Ġdescend": 6592,
      "Ġnearby": 6593,
      "Ġpublicado": 6594,
      "Ġdepression": 6595,
      "Ġnegro": 6596,
      "nedy": 6597,
      "Ġreaction": 6598,
      "Ġissues": 6599,
      "Ġiceland": 6600,
      "rgb": 6601,
      "ĠautÃ³noma": 6602,
      "Ġachie": 6603,
      "Ġtarg": 6604,
      "Ġlov": 6605,
      "Ġlung": 6606,
      "Ġreco": 6607,
      "Ġalas": 6608,
      "Ġstations": 6609,
      "uman": 6610,
      "Ġatrib": 6611,
      "ishes": 6612,
      "Ġspin": 6613,
      "Ġdouble": 6614,
      "Ġallies": 6615,
      "Ġbought": 6616,
      "Ġaccount": 6617,
      "Ġresol": 6618,
      "Ġprecip": 6619,
      "orno": 6620,
      "Ġguinea": 6621,
      "Ġromano": 6622,
      "Ġocas": 6623,
      "genes": 6624,
      "Ġalbania": 6625,
      "Ġhistorical": 6626,
      "Ġjeff": 6627,
      "Ġterritorios": 6628,
      "Ġpicked": 6629,
      "Ġrecogida": 6630,
      "ĠcÃ©lula": 6631,
      "Ġclothing": 6632,
      "Ġcosm": 6633,
      "Ġestimated": 6634,
      "Ġbibl": 6635,
      "Ġkennedy": 6636,
      "Ġdepartment": 6637,
      "ĠconvirtiÃ³": 6638,
      "Ġecuador": 6639,
      "%.": 6640,
      "uciones": 6641,
      "var": 6642,
      "zan": 6643,
      "ĠsÃŃmbol": 6644,
      "ĠfÃ¡": 6645,
      "Ġfried": 6646,
      "rown": 6647,
      "eless": 6648,
      "emas": 6649,
      "Ġquebec": 6650,
      "abilidad": 6651,
      "ization": 6652,
      "Ġelecciones": 6653,
      "Ġinternacionales": 6654,
      "Ġsmallest": 6655,
      "Ġchanging": 6656,
      "Ġ1932": 6657,
      "Ġ1928": 6658,
      "Ġcausing": 6659,
      "Ġfreder": 6660,
      "ĠraÃŃ": 6661,
      "Ġfemin": 6662,
      "ĠsituaciÃ³n": 6663,
      "Ġtradicional": 6664,
      "Ġadopt": 6665,
      "Ġciclo": 6666,
      "Ġneighbor": 6667,
      "Ġindonesia": 6668,
      "with": 6669,
      "Ġum": 6670,
      "Ġtuv": 6671,
      "orial": 6672,
      "adura": 6673,
      "ĠvÃŃa": 6674,
      "Ġchart": 6675,
      "Ġcomplic": 6676,
      "clud": 6677,
      "Ġimmedi": 6678,
      "Ġmuhammad": 6679,
      "Ġgovernments": 6680,
      "Ġdeben": 6681,
      "Ġbusc": 6682,
      "ĠlatÃŃn": 6683,
      "ÃŃculos": 6684,
      "Ġvirus": 6685,
      "Ġtemperatures": 6686,
      "Ġuran": 6687,
      "Ġcarbono": 6688,
      "Ġjugadores": 6689,
      "Ġazerbaiy": 6690,
      "ĠhistÃ³rico": 6691,
      "eos": 6692,
      "Ġbones": 6693,
      "ÃŃc": 6694,
      "Ġjump": 6695,
      "Ġasth": 6696,
      "Ġorders": 6697,
      "ighter": 6698,
      "Ġrecom": 6699,
      "Ġpositive": 6700,
      "Ġvariedad": 6701,
      "Ġ1938": 6702,
      "Ġimpact": 6703,
      "Ġarchae": 6704,
      "Ġseptiembre": 6705,
      "Ġlimited": 6706,
      "contin": 6707,
      "ĠtÃ©rminos": 6708,
      "Ġsaturday": 6709,
      "Ġohio": 6710,
      "Ġmedieval": 6711,
      "bi": 6712,
      "rico": 6713,
      "such": 6714,
      "enh": 6715,
      "rea": 6716,
      "Ġenjo": 6717,
      "Ġsuelo": 6718,
      "tebr": 6719,
      "Ġcarto": 6720,
      "Ġnoble": 6721,
      "ecer": 6722,
      "Ġcrim": 6723,
      "Ġintel": 6724,
      "Ġconform": 6725,
      "Ġinspir": 6726,
      "ophy": 6727,
      "Ġsaying": 6728,
      "Ġmichel": 6729,
      "ĠpolÃŃtico": 6730,
      "Ġjugador": 6731,
      "Ġgravity": 6732,
      "Ġprincess": 6733,
      "Ġtaiwan": 6734,
      "Ġchannel": 6735,
      "Ġahorita": 6736,
      "iores": 6737,
      "spe": 6738,
      "Ġaire": 6739,
      "Ġdance": 6740,
      "Ġlor": 6741,
      "Ã³t": 6742,
      "Ġrect": 6743,
      "ths": 6744,
      "Ã³nico": 6745,
      "Ġhebre": 6746,
      "Ġcooper": 6747,
      "ogos": 6748,
      "Ġmarsh": 6749,
      "see": 6750,
      "Ġformar": 6751,
      "ruction": 6752,
      "Ġpersona": 6753,
      "geno": 6754,
      "inois": 6755,
      "Ġstudent": 6756,
      "Ġbrothers": 6757,
      "ĠÃ¡mb": 6758,
      "ĠrepresentaciÃ³n": 6759,
      "Ġcopies": 6760,
      "Ġprocesos": 6761,
      "Ġlearning": 6762,
      "Ġfifa": 6763,
      "ĠpequeÃ±as": 6764,
      "Ġpractice": 6765,
      "Ġpredomin": 6766,
      "Ġslowly": 6767,
      "Ġassassin": 6768,
      "Ġobstante": 6769,
      "pet": 6770,
      "Ġtierras": 6771,
      "ĠcÃ¡l": 6772,
      "ĠpÃ¡": 6773,
      "isiones": 6774,
      "Ġwit": 6775,
      "Ġhombre": 6776,
      "Ġgn": 6777,
      "Ġgust": 6778,
      "ette": 6779,
      "istÃ¡n": 6780,
      "Ġatra": 6781,
      "Ġplanta": 6782,
      "cycl": 6783,
      "Ġviii": 6784,
      "Ġcaball": 6785,
      "Ġcolonies": 6786,
      "Ġfemen": 6787,
      "ĠllegÃ³": 6788,
      "Ġcollect": 6789,
      "Ġmathematician": 6790,
      "Ġjerusal": 6791,
      "Ġgrasses": 6792,
      "Ġempresas": 6793,
      "Ġasthma": 6794,
      "Ġpi": 6795,
      "Ġbaja": 6796,
      "entales": 6797,
      "Ġnun": 6798,
      "omy": 6799,
      "Ġprol": 6800,
      "ellig": 6801,
      "Ġappar": 6802,
      "Ġcolour": 6803,
      "Ġformado": 6804,
      "Ġ37": 6805,
      "Ġzinc": 6806,
      "Ġprovide": 6807,
      "Ġsubs": 6808,
      "Ġshortly": 6809,
      "Ġwalk": 6810,
      "Ġbrasile": 6811,
      "Ġfigura": 6812,
      "Ġsources": 6813,
      "Ġfaith": 6814,
      "Ġesperanto": 6815,
      "Ġshooting": 6816,
      "Ġsleep": 6817,
      "Ġalquim": 6818,
      "Ġdemonstr": 6819,
      "Ġinaugur": 6820,
      "dar": 6821,
      "eastern": 6822,
      "pon": 6823,
      "Ġpup": 6824,
      "ĠpÃ©r": 6825,
      "ĠlÃŃm": 6826,
      "Ġfant": 6827,
      "olis": 6828,
      "Ġabra": 6829,
      "Ġcontempor": 6830,
      "ĠacciÃ³n": 6831,
      "Ġgenetic": 6832,
      "Ġcommission": 6833,
      "Ġ1924": 6834,
      "Ġwinner": 6835,
      "Ġphysiology": 6836,
      "Ġcambios": 6837,
      "Ġmeses": 6838,
      "Ġvenus": 6839,
      "Ġclothes": 6840,
      "Ġmercado": 6841,
      "Ġhugo": 6842,
      "rodita": 6843,
      "Ġnewspaper": 6844,
      "Ġestadounidense": 6845,
      "59": 6846,
      "Ġtail": 6847,
      "Ġsel": 6848,
      "Ġdat": 6849,
      "Ġpac": 6850,
      "Ġpib": 6851,
      "Ġoeste": 6852,
      "Ġvio": 6853,
      "Ġorb": 6854,
      "tery": 6855,
      "Ġusers": 6856,
      "Ġcolo": 6857,
      "ached": 6858,
      "Ġobis": 6859,
      "Ġrecuper": 6860,
      "Ġedition": 6861,
      "wealth": 6862,
      "Ġsax": 6863,
      "Ġposterior": 6864,
      "Ġfuentes": 6865,
      "Ġstudio": 6866,
      "Ġequation": 6867,
      "Ġphilip": 6868,
      "Ġrealizar": 6869,
      "Ġconstituy": 6870,
      "Ġincreased": 6871,
      "Ġincluyendo": 6872,
      "Ġfleet": 6873,
      "Ġimmigr": 6874,
      "Ġconsiste": 6875,
      "Ġfresh": 6876,
      "Ġproyecto": 6877,
      "Ġmorocco": 6878,
      "Ġmeteor": 6879,
      "Ġtens": 6880,
      "Ġeigh": 6881,
      "ilos": 6882,
      "Ġvig": 6883,
      "Ġrib": 6884,
      "etro": 6885,
      "Ġjones": 6886,
      "Ġloss": 6887,
      "Ġort": 6888,
      "Ġclase": 6889,
      "Ġimage": 6890,
      "ricas": 6891,
      "Ġsurger": 6892,
      "Ġmillions": 6893,
      "Ġdemand": 6894,
      "Ġ1952": 6895,
      "Ġalguna": 6896,
      "Ġerr": 6897,
      "ĠalemÃ¡n": 6898,
      "Ġconvers": 6899,
      "mouth": 6900,
      "Ġillinois": 6901,
      "Ġinher": 6902,
      "Ġsurvive": 6903,
      "Ġconduct": 6904,
      "100": 6905,
      "44": 6906,
      "del": 6907,
      "lah": 6908,
      "Ġmaster": 6909,
      "Ġtools": 6910,
      "Ġcompared": 6911,
      "arta": 6912,
      "Ġmetab": 6913,
      "Ġsoutheast": 6914,
      "Ġinters": 6915,
      "Ġarmen": 6916,
      "Ġdivide": 6917,
      "Ġanyone": 6918,
      "Ġbroke": 6919,
      "Ġlegs": 6920,
      "Ġavoid": 6921,
      "Ġfactor": 6922,
      "Ġinfluenced": 6923,
      "Ġterritories": 6924,
      "Ġdefinition": 6925,
      "Ġconfirmar": 6926,
      "ĠseÃ±al": 6927,
      "Ġnumerosas": 6928,
      "Ġpadre": 6929,
      "Ġburgos": 6930,
      "98": 6931,
      "anced": 6932,
      "Ġwings": 6933,
      "icle": 6934,
      "apor": 6935,
      "Ġplot": 6936,
      "ĠpartÃŃculas": 6937,
      "Ġpuesto": 6938,
      "Ġpersian": 6939,
      "Ã©rc": 6940,
      "Ġtemple": 6941,
      "Ġsignifica": 6942,
      "Ġrestos": 6943,
      "Ġvolcan": 6944,
      "Ġjulian": 6945,
      "Ġ1921": 6946,
      "Ġradiation": 6947,
      "Ġdominio": 6948,
      "Ġtribes": 6949,
      "Ġstatus": 6950,
      "Ġconsejo": 6951,
      "Ġcomercio": 6952,
      "Ġarchitecture": 6953,
      "Ġfacil": 6954,
      "Ġhorizon": 6955,
      "ĠacompaÃ±": 6956,
      "hu": 6957,
      "Ġtort": 6958,
      "Ġthreat": 6959,
      "Ġcass": 6960,
      "onic": 6961,
      "orga": 6962,
      "Ġnam": 6963,
      "Ġ1919": 6964,
      "ablo": 6965,
      "upiter": 6966,
      "Ġcuen": 6967,
      "Ġterc": 6968,
      "Ġearliest": 6969,
      "ablemente": 6970,
      "ĠejÃ©rc": 6971,
      "Ġcommonwealth": 6972,
      "Ġbeliefs": 6973,
      "Ġmoderna": 6974,
      "Ġtemperatura": 6975,
      "Ġmixt": 6976,
      "Ġscientist": 6977,
      "Ġelectronic": 6978,
      "Ġphotograph": 6979,
      "Ġdicha": 6980,
      "Ġfocus": 6981,
      "ĠmediterrÃ¡neo": 6982,
      "oh": 6983,
      "Ġwound": 6984,
      "osos": 6985,
      "Ġrecept": 6986,
      "Ġseasons": 6987,
      "Ġasc": 6988,
      "ovak": 6989,
      "Ġmarzo": 6990,
      "Ġsint": 6991,
      "Ġfranco": 6992,
      "Ġblind": 6993,
      "azo": 6994,
      "Ġcape": 6995,
      "Ġintens": 6996,
      "Ġintellig": 6997,
      "Ġmusicians": 6998,
      "Ġparticle": 6999,
      "Ġraised": 7000,
      "Ġreferencia": 7001,
      "Ġinicial": 7002,
      "Ġlinux": 7003,
      "Ġmunicipios": 7004,
      "Ġassociated": 7005,
      "Ġelectrical": 7006,
      "Ġcommitte": 7007,
      "Ġhollywood": 7008,
      "bul": 7009,
      "hl": 7010,
      "wall": 7011,
      "Ġmort": 7012,
      "itaciÃ³n": 7013,
      "iders": 7014,
      "etros": 7015,
      "ĠkÃ¶": 7016,
      "Ġhisp": 7017,
      "Ġhole": 7018,
      "Ġsaud": 7019,
      "Ġairpl": 7020,
      "Ġdemost": 7021,
      "Ġgoods": 7022,
      "Ġviruses": 7023,
      "Ġargument": 7024,
      "Ġarabia": 7025,
      "Ġestructuras": 7026,
      "Ġdeclaration": 7027,
      "ĠtÃ©cnica": 7028,
      "Ġstraight": 7029,
      "Ġjournalist": 7030,
      "ĠastrologÃŃa": 7031,
      "Ġemploy": 7032,
      "cs": 7033,
      "rina": 7034,
      "ening": 7035,
      "onse": 7036,
      "oslav": 7037,
      "iting": 7038,
      "Ġingen": 7039,
      "uts": 7040,
      "utas": 7041,
      "Ġorange": 7042,
      "Ġcallback": 7043,
      "Ġusu": 7044,
      "Ġflows": 7045,
      "Ġregard": 7046,
      "ricos": 7047,
      "Ġrecently": 7048,
      "culas": 7049,
      "Ġcrus": 7050,
      "Ġinvers": 7051,
      "Ġnovela": 7052,
      "Ġrefers": 7053,
      "Ġlegend": 7054,
      "Ġvisual": 7055,
      "Ġgods": 7056,
      "Ġactividades": 7057,
      "Ġbudismo": 7058,
      "Ġencarg": 7059,
      "Ġhemisphere": 7060,
      "Ġdisorder": 7061,
      "frica": 7062,
      "pat": 7063,
      "Ġces": 7064,
      "Ġsag": 7065,
      "ilia": 7066,
      "iven": 7067,
      "Ġkent": 7068,
      "Ġess": 7069,
      "Ġescape": 7070,
      "Ġability": 7071,
      "Ġdissol": 7072,
      "Ġdoug": 7073,
      "Ġ46": 7074,
      "Ġ1934": 7075,
      "ĠÃ¡frica": 7076,
      "Ġvisible": 7077,
      "Ġactivities": 7078,
      "Ġnormalmente": 7079,
      "Ġmatem": 7080,
      "cimientos": 7081,
      "Ġfemales": 7082,
      "Ġseparated": 7083,
      "Ġtextos": 7084,
      "Ġadopted": 7085,
      "Ġstayed": 7086,
      "ĠexpresiÃ³n": 7087,
      "Ġbranch": 7088,
      "Ġhusband": 7089,
      "//": 7090,
      "nia": 7091,
      "Ġpage": 7092,
      "Ġlig": 7093,
      "itants": 7094,
      "Ġnombres": 7095,
      "leo": 7096,
      "Ġrug": 7097,
      "Ġ1800": 7098,
      "Ġgram": 7099,
      "Ġouter": 7100,
      "Ġdifferences": 7101,
      "Ġtransporte": 7102,
      "Ġconsiderado": 7103,
      "Ġvolume": 7104,
      "ĠaquÃŃ": 7105,
      "Ġsigue": 7106,
      "Ġaltura": 7107,
      "Ġinici": 7108,
      "ĠpÃºblica": 7109,
      "Ġkilometers": 7110,
      "Ġdemocracy": 7111,
      "Ġfields": 7112,
      "Ġtempran": 7113,
      "56": 7114,
      "fair": 7115,
      "iat": 7116,
      "tip": 7117,
      "town": 7118,
      "ĠÃ": 7119,
      "esco": 7120,
      "Ġsid": 7121,
      "anth": 7122,
      "ĠlÃ³": 7123,
      "Ġwis": 7124,
      "Ġnacionales": 7125,
      "Ġseman": 7126,
      "igÃ¼": 7127,
      "eto": 7128,
      "Ġkel": 7129,
      "ugu": 7130,
      "Ġarco": 7131,
      "Ġcompart": 7132,
      "Ġmec": 7133,
      "Ġmez": 7134,
      "mento": 7135,
      "arters": 7136,
      "ricts": 7137,
      "Ġpaid": 7138,
      "Ġdefined": 7139,
      "ĠÃ¡cido": 7140,
      "Ġ1912": 7141,
      "Ġactivity": 7142,
      "Ġgeneration": 7143,
      "Ġdespite": 7144,
      "Ġtriang": 7145,
      "Ġcondition": 7146,
      "Ġsatell": 7147,
      "Ġmeeting": 7148,
      "Ġvariable": 7149,
      "Ġleonardo": 7150,
      "Ġvariety": 7151,
      "ĠcÃ¡ncer": 7152,
      "ĠÃ©xito": 7153,
      "://": 7154,
      "bury": 7155,
      "uce": 7156,
      "Ġcd": 7157,
      "Ġmr": 7158,
      "uno": 7159,
      "Ġrud": 7160,
      "Ġprono": 7161,
      "ava": 7162,
      "apa": 7163,
      "Ġagost": 7164,
      "Ġnote": 7165,
      "Ġafect": 7166,
      "clam": 7167,
      "Ġbound": 7168,
      "Ġterrest": 7169,
      "Ġknew": 7170,
      "Ġinfant": 7171,
      "Ġ1931": 7172,
      "Ġgrab": 7173,
      "Ġarchip": 7174,
      "Ġturismo": 7175,
      "burgh": 7176,
      "Ġtexto": 7177,
      "Ġsustitu": 7178,
      "Ġcomercial": 7179,
      "Ġefectos": 7180,
      "Ġadults": 7181,
      "Ġnutri": 7182,
      "Ġagujero": 7183,
      "ĠcÃ³mo": 7184,
      "Ġbolivia": 7185,
      "fort": 7186,
      "Ġiz": 7187,
      "Ġcatherine": 7188,
      "Ġpra": 7189,
      "Ġpull": 7190,
      "Ġlum": 7191,
      "aled": 7192,
      "Ġdeta": 7193,
      "atem": 7194,
      "imb": 7195,
      "Ġalone": 7196,
      "Ġvul": 7197,
      "chester": 7198,
      "Ġorth": 7199,
      "Ġchall": 7200,
      "Ġuss": 7201,
      "Ġpeak": 7202,
      "ugg": 7203,
      "ube": 7204,
      "Ġafrodita": 7205,
      "Ġacceso": 7206,
      "Ġmedios": 7207,
      "Ġbuenos": 7208,
      "iÃ©ndose": 7209,
      "ĠhabÃŃan": 7210,
      "Ġeuropeos": 7211,
      "Ġgeomet": 7212,
      "Ġremember": 7213,
      "Ġvictor": 7214,
      "âĢĿ.": 7215,
      "Ġmagnitude": 7216,
      "Ġfigure": 7217,
      "Ġencontrar": 7218,
      "Ġfalta": 7219,
      "Ġsignificant": 7220,
      "ĠcientÃŃfica": 7221,
      "Ġdicho": 7222,
      "Ġcay": 7223,
      "Ġcierra": 7224,
      "Ġpse": 7225,
      "Ġwine": 7226,
      "ilton": 7227,
      "Ġonto": 7228,
      "Ġjupiter": 7229,
      "Ġordin": 7230,
      "Ġchance": 7231,
      "Ġcontent": 7232,
      "Ġemer": 7233,
      "Ġantar": 7234,
      "ificado": 7235,
      "Ġdefine": 7236,
      "Ġslave": 7237,
      "Ġastur": 7238,
      "Ġstrikes": 7239,
      "Ġswedish": 7240,
      "Ġrebell": 7241,
      "Ġhungary": 7242,
      "ĠmÃ©todos": 7243,
      "Ġjunio": 7244,
      "Ġperegr": 7245,
      "Ġabraham": 7246,
      "42": 7247,
      "gado": 7248,
      "kins": 7249,
      "Ġcards": 7250,
      "Ġsod": 7251,
      "Ġspect": 7252,
      "Ġmam": 7253,
      "arÃ¡": 7254,
      "Ġbag": 7255,
      "Ġbeng": 7256,
      "edon": 7257,
      "cieron": 7258,
      "Ġexch": 7259,
      "Ġcargo": 7260,
      "Ġcentros": 7261,
      "Ġzone": 7262,
      "Ġelectrom": 7263,
      "Ġhumid": 7264,
      "Ġsimpl": 7265,
      "Ġfinding": 7266,
      "ogrÃ¡fic": 7267,
      "Ġpurple": 7268,
      "Ġteacher": 7269,
      "Ġtraining": 7270,
      "Ġneutron": 7271,
      "Ġfailed": 7272,
      "Ġarticle": 7273,
      "ĠmÃ©todo": 7274,
      "Ġaparece": 7275,
      "Ġexplosion": 7276,
      "ogrÃ¡fica": 7277,
      "Ġelimin": 7278,
      "85": 7279,
      "bir": 7280,
      "his": 7281,
      "Ġpud": 7282,
      "unced": 7283,
      "rogen": 7284,
      "Ġnad": 7285,
      "Ġgib": 7286,
      "Ã³f": 7287,
      "Ġprogres": 7288,
      "ibility": 7289,
      "Ġimpos": 7290,
      "Ġteen": 7291,
      "Ġcuent": 7292,
      "oresc": 7293,
      "Ġdistricts": 7294,
      "aily": 7295,
      "Ġescult": 7296,
      "Ġnoviembre": 7297,
      "Ġexplain": 7298,
      "ĠÃ¡ra": 7299,
      "Ġprogress": 7300,
      "elson": 7301,
      "Ġsentence": 7302,
      "Ġdevices": 7303,
      "Ġfifty": 7304,
      "ĠrevoluciÃ³n": 7305,
      "Ġcensus": 7306,
      "Ġserbia": 7307,
      "Ġtoxic": 7308,
      "87": 7309,
      "nor": 7310,
      "eria": 7311,
      "orter": 7312,
      "isation": 7313,
      "Ġbond": 7314,
      "Ġlew": 7315,
      "Ġmecan": 7316,
      "Ġcontest": 7317,
      "Ġcrimes": 7318,
      "Ġfounder": 7319,
      "Ġ1951": 7320,
      "Ġremained": 7321,
      "Ġ1923": 7322,
      "Ġdiferenci": 7323,
      "Ġwinds": 7324,
      "Ġplaneta": 7325,
      "Ġliteratura": 7326,
      "Ġengineering": 7327,
      "Ġalfred": 7328,
      "Ġalfabet": 7329,
      "Ġconstruction": 7330,
      "ĠlÃŃneas": 7331,
      "Ġscreenwriter": 7332,
      "Ġsubstance": 7333,
      "Ġchemistry": 7334,
      "Ġentertainment": 7335,
      "cyclop": 7336,
      "hr": 7337,
      "rimiento": 7338,
      "Ġfear": 7339,
      "Ġnaciones": 7340,
      "ĠvÃŃ": 7341,
      "Ġesqu": 7342,
      "ogue": 7343,
      "Ġroots": 7344,
      "Ġteatro": 7345,
      "Ġflora": 7346,
      "inta": 7347,
      "Ġslot": 7348,
      "ĠdemÃ¡s": 7349,
      "issipp": 7350,
      "Ġexpensive": 7351,
      "Ġcontinente": 7352,
      "ixon": 7353,
      "ĠtelevisiÃ³n": 7354,
      "Ġtypically": 7355,
      "Ġmichigan": 7356,
      "Ġrequired": 7357,
      "Ġcontrario": 7358,
      "Ġoklah": 7359,
      "Ġcaribe": 7360,
      "Ġvitamin": 7361,
      "Ġbangl": 7362,
      "Ġcrops": 7363,
      "fin": 7364,
      "mes": 7365,
      "ois": 7366,
      "Ġtries": 7367,
      "Ġdaily": 7368,
      "Ġbost": 7369,
      "Ġbull": 7370,
      "Ġfans": 7371,
      "omo": 7372,
      "Ġgain": 7373,
      "Ġselect": 7374,
      "Ġvic": 7375,
      "Ġronald": 7376,
      "Ġstor": 7377,
      "Ġitems": 7378,
      "Ġparlam": 7379,
      "Ġappl": 7380,
      "ismos": 7381,
      "Ġcreating": 7382,
      "iedades": 7383,
      "Ġvolum": 7384,
      "Ġestudi": 7385,
      "ĠatlÃ¡n": 7386,
      "ĠpequeÃ±os": 7387,
      "Ġqueda": 7388,
      "Ġclaimed": 7389,
      "Ġcompuestos": 7390,
      "Ġathlet": 7391,
      "Ġaccepted": 7392,
      "Ġinstituciones": 7393,
      "now": 7394,
      "Ġapl": 7395,
      "Ġcp": 7396,
      "lea": 7397,
      "Ġenl": 7398,
      "Ġcomic": 7399,
      "Ġku": 7400,
      "Ġprest": 7401,
      "Ġabre": 7402,
      "Ġcompil": 7403,
      "Ġairbus": 7404,
      "Ġdecade": 7405,
      "Ġ149": 7406,
      "Ġpasa": 7407,
      "Ġfoods": 7408,
      "Ġprogramas": 7409,
      "Ġcaptain": 7410,
      "Ġconquista": 7411,
      "ĠmÃ¡qu": 7412,
      "Ġgregorian": 7413,
      "Ġstephen": 7414,
      "Ġartificial": 7415,
      "Ġenjoy": 7416,
      "issippi": 7417,
      "63": 7418,
      "km": 7419,
      "rales": 7420,
      "trop": 7421,
      "ĠcÃ¡m": 7422,
      "Ġbed": 7423,
      "Ġbach": 7424,
      "Ġandrew": 7425,
      "Ġunique": 7426,
      "Ġrand": 7427,
      "Ġstick": 7428,
      "Ġchocol": 7429,
      "ova": 7430,
      "Ġprey": 7431,
      "Ġ1957": 7432,
      "Ġexpon": 7433,
      "Ġpenal": 7434,
      "Ġluther": 7435,
      "Ġprotons": 7436,
      "Ġtiempos": 7437,
      "Ġfishing": 7438,
      "mont": 7439,
      "Ġenfermedades": 7440,
      "Ġsurgery": 7441,
      "Ġoklahoma": 7442,
      "dney": 7443,
      "iende": 7444,
      "ĪĴ": 7445,
      "Ġvect": 7446,
      "ott": 7447,
      "Ġqueens": 7448,
      "odia": 7449,
      "Ġnecess": 7450,
      "sey": 7451,
      "Ġtwice": 7452,
      "Ġeleph": 7453,
      "Ġcrear": 7454,
      "Ġtransmit": 7455,
      "Ġangola": 7456,
      "Ġutilizar": 7457,
      "Ġschiz": 7458,
      "Ġhotel": 7459,
      "Ġpainting": 7460,
      "Ġmagnetic": 7461,
      "ĠpequeÃ±o": 7462,
      "kyo": 7463,
      "Ġaprob": 7464,
      "Ġsymbols": 7465,
      "Ġtaxes": 7466,
      "Ġinstitute": 7467,
      "Ġbeatles": 7468,
      "Ġcumpl": 7469,
      "Ġfernando": 7470,
      "Ġasimismo": 7471,
      "Ġfully": 7472,
      "ĠpÃ©rd": 7473,
      "Ġboston": 7474,
      "cut": 7475,
      "found": 7476,
      "Î¿": 7477,
      "inet": 7478,
      "Ġbes": 7479,
      "ÃŃfer": 7480,
      "antic": 7481,
      "rier": 7482,
      "Ġcovers": 7483,
      "aker": 7484,
      "ugoslav": 7485,
      "ello": 7486,
      "Ġproducto": 7487,
      "Ġeuropeans": 7488,
      "Ġadding": 7489,
      "Ġcamps": 7490,
      "Ġutilizado": 7491,
      "Ġgluc": 7492,
      "Ġalmacen": 7493,
      "Ġllegada": 7494,
      "Ġgalile": 7495,
      "Ġyounger": 7496,
      "Ġcycl": 7497,
      "Ġpremio": 7498,
      "Ġfloor": 7499,
      "Ġresources": 7500,
      "Ġcommittee": 7501,
      ".).": 7502,
      "rÃ¡s": 7503,
      "Ġ;": 7504,
      "Ġlle": 7505,
      "Ġwol": 7506,
      "icult": 7507,
      "icciÃ³n": 7508,
      "Ġnomb": 7509,
      "uridad": 7510,
      "Ġworship": 7511,
      "Ġagrup": 7512,
      "Ġamar": 7513,
      "Ġclay": 7514,
      "Ġrogers": 7515,
      "Ġacting": 7516,
      "Ġflash": 7517,
      "Ġsurrender": 7518,
      "Ġ75": 7519,
      "Ġwriters": 7520,
      "Ġsubmar": 7521,
      "Ġplanes": 7522,
      "Ġslight": 7523,
      "Ġfilms": 7524,
      "Ġproteins": 7525,
      "ophren": 7526,
      "Ġbelief": 7527,
      "Ġllama": 7528,
      "Ġtroca": 7529,
      "Ġmaur": 7530,
      "Ġbombing": 7531,
      "Ġantiguos": 7532,
      "Ġthinking": 7533,
      "iii": 7534,
      "Ġhomosexual": 7535,
      "Ġmississippi": 7536,
      "Ġvotes": 7537,
      "attan": 7538,
      "Ġkarl": 7539,
      "Ġexecutive": 7540,
      "Ġmonarchy": 7541,
      "Ġimagen": 7542,
      "Ġquestions": 7543,
      "Ġcopyright": 7544,
      "Ġukraine": 7545,
      "Ġabortion": 7546,
      "di": 7547,
      "hire": 7548,
      "iner": 7549,
      "Ġpale": 7550,
      "Ġlista": 7551,
      "reas": 7552,
      "ilty": 7553,
      "Ġreve": 7554,
      "Ġrelev": 7555,
      "Ġseem": 7556,
      "ividad": 7557,
      "Ġrice": 7558,
      "Ġore": 7559,
      "Ġnotes": 7560,
      "Ġrough": 7561,
      "ieren": 7562,
      "Ġpresente": 7563,
      "Ġ33": 7564,
      "Ġcream": 7565,
      "Ġrecor": 7566,
      "Ġ42": 7567,
      "Ġantib": 7568,
      "Ġespir": 7569,
      "Ġproven": 7570,
      "general": 7571,
      "brero": 7572,
      "ĠcomunicaciÃ³n": 7573,
      "Ġelemento": 7574,
      "Ġllegando": 7575,
      "Ġcloser": 7576,
      "Ġahora": 7577,
      "Ġillness": 7578,
      "Ġtratado": 7579,
      "Ġarqueas": 7580,
      "thesis": 7581,
      "Ġphoenix": 7582,
      "Ġmencion": 7583,
      "father": 7584,
      "uÃ±a": 7585,
      "Åį": 7586,
      "Î±": 7587,
      "Ġtum": 7588,
      "Ġcric": 7589,
      "ani": 7590,
      "Ġbh": 7591,
      "ingÃ¼": 7592,
      "Ġencyclop": 7593,
      "ulation": 7594,
      "Ġbey": 7595,
      "Ġstran": 7596,
      "Ġmanager": 7597,
      "Ġamiga": 7598,
      "atever": 7599,
      "Ġafirm": 7600,
      "Ġadvert": 7601,
      "Ġserve": 7602,
      "Ġentrada": 7603,
      "Ġmuestra": 7604,
      "Ġflav": 7605,
      "Ġflowers": 7606,
      "Ġhered": 7607,
      "Ġguatem": 7608,
      "Ġbuff": 7609,
      "Ġcorona": 7610,
      "Ġdram": 7611,
      "Ġculturales": 7612,
      "Ġbroken": 7613,
      "Ġharv": 7614,
      "Ġvolunt": 7615,
      "Ġ1926": 7616,
      "Ġarchie": 7617,
      "Ġfriday": 7618,
      "Ġburied": 7619,
      "Ġescuela": 7620,
      "Ġhawaii": 7621,
      "ĠtÃŃtulo": 7622,
      "Ġmongol": 7623,
      "Ġcuenca": 7624,
      "Ġelectromagn": 7625,
      "75": 7626,
      "fos": 7627,
      "rus": 7628,
      "Ġtet": 7629,
      "Ġaven": 7630,
      "arc": 7631,
      "Ġfis": 7632,
      "Ġfame": 7633,
      "Ġhorn": 7634,
      "Ġrico": 7635,
      "Ġshell": 7636,
      "Ġ1812": 7637,
      "Ġ41": 7638,
      "Ġmetres": 7639,
      "Ã©rico": 7640,
      "Ġsalam": 7641,
      "Ġ95": 7642,
      "Ġbattles": 7643,
      "Ġstrings": 7644,
      "Ġprotein": 7645,
      "Ġ1910": 7646,
      "Ġclosed": 7647,
      "Ġdraw": 7648,
      "Ġsemi": 7649,
      "Ġniveles": 7650,
      "ĠespaÃ±oles": 7651,
      "Ġfuerzas": 7652,
      "Ġproperties": 7653,
      "Ġimmune": 7654,
      "Ġaudio": 7655,
      "Ġmultiple": 7656,
      "Ġrecognized": 7657,
      "Ġconference": 7658,
      "Ġsunday": 7659,
      "Ġagosto": 7660,
      "46": 7661,
      "mat": 7662,
      "oth": 7663,
      "tan": 7664,
      "ĠÃ¡ng": 7665,
      "Ġsort": 7666,
      "Ġsperm": 7667,
      "Ġfac": 7668,
      "imen": 7669,
      "ĠrÃ©g": 7670,
      "otic": 7671,
      "Ġwhatever": 7672,
      "ceae": 7673,
      "Ġkong": 7674,
      "Ġplaza": 7675,
      "izing": 7676,
      "Ġdisplay": 7677,
      "Ġcuy": 7678,
      "Ġcuest": 7679,
      "Ġcred": 7680,
      "Ġtrains": 7681,
      "Ġsupply": 7682,
      "Ġofficer": 7683,
      "Ġfuneral": 7684,
      "Ġfunciona": 7685,
      "Ġchristoph": 7686,
      "Ġlatina": 7687,
      "Ġconvention": 7688,
      "Ġdirected": 7689,
      "Ġturns": 7690,
      "Ġingres": 7691,
      "Ġviolence": 7692,
      "Ġbulg": 7693,
      "Ġclaims": 7694,
      "Ġmethods": 7695,
      "Ġcarrying": 7696,
      "Ġcircun": 7697,
      "Ġmanifest": 7698,
      "Ġbasketball": 7699,
      "Ġschizophren": 7700,
      "Ġcricket": 7701,
      "\"),": 7702,
      "Ġtang": 7703,
      "Ġsult": 7704,
      "Ġbic": 7705,
      "Ġhang": 7706,
      "Ġheter": 7707,
      "omina": 7708,
      "stone": 7709,
      "uma": 7710,
      "Ġprice": 7711,
      "avel": 7712,
      "Ġdespl": 7713,
      "Ġnothing": 7714,
      "Ġbutter": 7715,
      "Ġliked": 7716,
      "Ġmovimientos": 7717,
      "reng": 7718,
      "Ġupd": 7719,
      "Ġtema": 7720,
      "Ġgeograph": 7721,
      "ÃŃsticas": 7722,
      "Ġcattle": 7723,
      "Ġdeaths": 7724,
      "Ġ1861": 7725,
      "Ġruler": 7726,
      "olÃ³gicas": 7727,
      "Ġordered": 7728,
      "Ã¡mica": 7729,
      "Ġsevilla": 7730,
      "Ġatlanta": 7731,
      "Ġtasa": 7732,
      "Ġprofessor": 7733,
      "Ġsaturn": 7734,
      "Ġcourse": 7735,
      "Ġethiopia": 7736,
      "mun": 7737,
      "rÃŃan": 7738,
      "esa": 7739,
      "Ġhors": 7740,
      "Ġnave": 7741,
      "Ġgon": 7742,
      "Ġyugoslav": 7743,
      "urgo": 7744,
      "Ġrepe": 7745,
      "ulaciÃ³n": 7746,
      "Ġrose": 7747,
      "uten": 7748,
      "Ã³nicos": 7749,
      "Ġdismin": 7750,
      "Ġtraffic": 7751,
      "Ġcrust": 7752,
      "Ġdefense": 7753,
      "Ġcausa": 7754,
      "Ġvisited": 7755,
      "Ġtalking": 7756,
      "Ġhappy": 7757,
      "Ġpasses": 7758,
      "Ġrealiza": 7759,
      "Ġpiezas": 7760,
      "Ġmediados": 7761,
      "Ġbiology": 7762,
      "Ġmejores": 7763,
      "Ġpurpose": 7764,
      "ĠdÃ©cadas": 7765,
      "Ġhills": 7766,
      "Ġcristianismo": 7767,
      "Ġpilot": 7768,
      "Ġwelsh": 7769,
      "Ġminerals": 7770,
      "Ġhormones": 7771,
      "Ġcampeon": 7772,
      "Ġmobile": 7773,
      "Ġbangladesh": 7774,
      "gl": 7775,
      "nel": 7776,
      "uit": 7777,
      "arin": 7778,
      "Ġhombres": 7779,
      "Ġnich": 7780,
      "cious": 7781,
      "cima": 7782,
      "elos": 7783,
      "this": 7784,
      "Ġconver": 7785,
      "Ġlose": 7786,
      "iance": 7787,
      "pert": 7788,
      "Ġflower": 7789,
      "Ġfeed": 7790,
      "Ġfebrero": 7791,
      "Ġrecursos": 7792,
      "Ġguilty": 7793,
      "Ġplanned": 7794,
      "shire": 7795,
      "Ġholes": 7796,
      "Ġbalon": 7797,
      "Ġheadqu": 7798,
      "Ġmaest": 7799,
      "Ġcombined": 7800,
      "Ġjudic": 7801,
      "Ġdesarrollado": 7802,
      "Ġconsecuencia": 7803,
      "Ġtourists": 7804,
      "Ġmachines": 7805,
      "Ġinjured": 7806,
      "Ġapproxim": 7807,
      "Ġgravit": 7808,
      "Ġpolicy": 7809,
      "Ġoccupied": 7810,
      "Ġgradu": 7811,
      "Ġbehavior": 7812,
      "Ġerupt": 7813,
      "ĠejÃ©rcito": 7814,
      "62": 7815,
      "bras": 7816,
      "Ġlun": 7817,
      "Ġfrag": 7818,
      "cium": 7819,
      "quin": 7820,
      "Ġunesco": 7821,
      "aine": 7822,
      "ritos": 7823,
      "Ġapplic": 7824,
      "ierta": 7825,
      "Ġgrado": 7826,
      "weg": 7827,
      "Ġmagic": 7828,
      "Ġwonder": 7829,
      "ĠgeneraciÃ³n": 7830,
      "Ġmalays": 7831,
      "Ġreaches": 7832,
      "Ġcambridge": 7833,
      "Ġlugares": 7834,
      "Ġmascul": 7835,
      "Ġhomes": 7836,
      "Ġamplia": 7837,
      "Ġpromot": 7838,
      "ĠcientÃŃficos": 7839,
      "Ġdelivered": 7840,
      "Ġnickn": 7841,
      "Ġstalin": 7842,
      "Ġdouglas": 7843,
      "300": 7844,
      ";\"": 7845,
      "ĠsÃŃn": 7846,
      "Ġsanto": 7847,
      "Ġdust": 7848,
      "Ġhtt": 7849,
      "using": 7850,
      "Ġtot": 7851,
      "Ġisa": 7852,
      "ilities": 7853,
      "Ġsection": 7854,
      "Ġrural": 7855,
      "Ġpros": 7856,
      "Ġarctic": 7857,
      "Ġroger": 7858,
      "Ġadams": 7859,
      "Ġmonte": 7860,
      "ysis": 7861,
      "Ġuniverso": 7862,
      "Ġprodujo": 7863,
      "iguel": 7864,
      "Ġtreated": 7865,
      "Ġresulting": 7866,
      "Ġletras": 7867,
      "Ġbanks": 7868,
      "inosa": 7869,
      "Ġambas": 7870,
      "Ġreceiver": 7871,
      "Ġinventor": 7872,
      "Ġleyes": 7873,
      "Ġcelebrated": 7874,
      "Ġrelativity": 7875,
      "ĠcientÃŃfico": 7876,
      "Ġhunting": 7877,
      "ĠningÃºn": 7878,
      "Ġphysicist": 7879,
      "Ġcaesar": 7880,
      "Ġimmediately": 7881,
      "Ġsaudi": 7882,
      "41": 7883,
      "euro": 7884,
      "orte": 7885,
      "Ġmiguel": 7886,
      "Ġwet": 7887,
      "ione": 7888,
      "Ã³p": 7889,
      "Ã³v": 7890,
      "estruct": 7891,
      "Ġvary": 7892,
      "Ġvilla": 7893,
      "agas": 7894,
      "Ġafgan": 7895,
      "Ġmaria": 7896,
      "Ġcarre": 7897,
      "dez": 7898,
      "Ġaport": 7899,
      "Ġinterf": 7900,
      "Ġzo": 7901,
      "Ġhighly": 7902,
      "Ġarms": 7903,
      "Ġbrows": 7904,
      "Ġcontinent": 7905,
      "Ġpalacio": 7906,
      "itaria": 7907,
      "Ġ1911": 7908,
      "Ġcomunes": 7909,
      "Ġholiday": 7910,
      "Ġegg": 7911,
      "Ġresponse": 7912,
      "Ġsituado": 7913,
      "Ġsemen": 7914,
      "Ġconquist": 7915,
      "Ġindividu": 7916,
      "Ġsenator": 7917,
      "Ġnarr": 7918,
      "Ġauthority": 7919,
      "Ġmessage": 7920,
      "Ġappointed": 7921,
      "Ġneutral": 7922,
      "Ġaspectos": 7923,
      "Ġapoyo": 7924,
      "Ġestrellas": 7925,
      "88": 7926,
      "89": 7927,
      "zi": 7928,
      "Ġaumento": 7929,
      "Ġdanish": 7930,
      "Ġlem": 7931,
      "Ġnos": 7932,
      "Ġgay": 7933,
      "Ġuns": 7934,
      "chen": 7935,
      "chem": 7936,
      "Ġri": 7937,
      "Ġrise": 7938,
      "owder": 7939,
      "Ġprove": 7940,
      "riel": 7941,
      "Ġcoin": 7942,
      "Ġplastic": 7943,
      "Ġshared": 7944,
      "asts": 7945,
      "tood": 7946,
      "Ġ2023": 7947,
      "Ġnoon": 7948,
      "Ġadn": 7949,
      "Ġdisaster": 7950,
      "ioso": 7951,
      "Ġactors": 7952,
      "Ġmuest": 7953,
      "Ġcapa": 7954,
      "Ġtrack": 7955,
      "Ġsydney": 7956,
      "poses": 7957,
      "Ġ800": 7958,
      "Ġorganic": 7959,
      "Ġ1935": 7960,
      "Ġofficers": 7961,
      "Ã©ticas": 7962,
      "Ġlocales": 7963,
      "Ġpatrimonio": 7964,
      "Ġ1925": 7965,
      "Ġassist": 7966,
      "Ġdefeating": 7967,
      "Ġstronger": 7968,
      "Ġwalter": 7969,
      "ĠjesÃºs": 7970,
      "Ġposeen": 7971,
      "Ġdiction": 7972,
      "Ġaffected": 7973,
      "Ġfelt": 7974,
      "Ġasteroides": 7975,
      "ĠrÃ©gimen": 7976,
      "Ġern": 7977,
      "Ġsites": 7978,
      "asia": 7979,
      "edo": 7980,
      "Ġeu": 7981,
      "Ġnixon": 7982,
      "Ġgate": 7983,
      "Ġyes": 7984,
      "Ġsoul": 7985,
      "Ġusar": 7986,
      "Ġmanuel": 7987,
      "Ġallied": 7988,
      "Ġcounties": 7989,
      "load": 7990,
      "Ġmonaster": 7991,
      "ĠediciÃ³n": 7992,
      "Ġseguridad": 7993,
      "Ġdestin": 7994,
      "ocked": 7995,
      "ĠdirecciÃ³n": 7996,
      "Ġlawyer": 7997,
      "Ġdenomina": 7998,
      "Ġalej": 7999,
      "Ġ1865": 8000,
      "Ġdaniel": 8001,
      "Ġcollection": 8002,
      "rÃ³geno": 8003,
      "Ġdigest": 8004,
      "Ġegyptian": 8005,
      "Ġreduce": 8006,
      "Ġorgans": 8007,
      "Ġhamilton": 8008,
      "Ġpintura": 8009,
      "Ġpierre": 8010,
      "Ġidioma": 8011,
      "Ġinvaded": 8012,
      "arquÃŃa": 8013,
      "Ġfrederick": 8014,
      "43": 8015,
      ":#": 8016,
      "fly": 8017,
      "hist": 8018,
      "ml": 8019,
      "mond": 8020,
      "Ġpip": 8021,
      "orrow": 8022,
      "Ġmigr": 8023,
      "Ġwaste": 8024,
      "Ġusb": 8025,
      "Ġemerg": 8026,
      "athers": 8027,
      "ĠdifÃŃ": 8028,
      "Ġmining": 8029,
      "cuÃ¡l": 8030,
      "Ġroma": 8031,
      "Ġcaf": 8032,
      "Ġsale": 8033,
      "Ġgranada": 8034,
      "Ġsinging": 8035,
      "Ġestudia": 8036,
      "Ġmadera": 8037,
      "Ġprovincial": 8038,
      "itudes": 8039,
      "Ġwilliams": 8040,
      "Ġurb": 8041,
      "âĢĶ,": 8042,
      "rÃ³leo": 8043,
      "Ġconservative": 8044,
      "Ġengineer": 8045,
      "ĠdistribuciÃ³n": 8046,
      "Ġaguas": 8047,
      "Ġsalvador": 8048,
      "Ġanteriores": 8049,
      "Ġcustom": 8050,
      "ĠproteÃŃnas": 8051,
      "Ġjerusalem": 8052,
      "Ġschizophrenia": 8053,
      "hab": 8054,
      "sch": 8055,
      "wise": 8056,
      "Ġbbc": 8057,
      "road": 8058,
      "Ġreign": 8059,
      "agua": 8060,
      "Ġnept": 8061,
      "Ġarn": 8062,
      "Ġarsen": 8063,
      "Ġdisag": 8064,
      "Ġtea": 8065,
      "Ġseres": 8066,
      "ords": 8067,
      "Ġverde": 8068,
      "gency": 8069,
      "heim": 8070,
      "Ġvii": 8071,
      "ĠaragÃ³n": 8072,
      "Ġfactors": 8073,
      "Ġterritorial": 8074,
      "Ġdiez": 8075,
      "Ġhealthy": 8076,
      "Ġdistribu": 8077,
      "Ġiglesias": 8078,
      "background": 8079,
      "Ġmaxim": 8080,
      "Ġobtener": 8081,
      "ĠmÃ¡ximo": 8082,
      "Ġfilosof": 8083,
      "Ġsweet": 8084,
      "Ġprussia": 8085,
      "Ġocasiones": 8086,
      "Ġchocolate": 8087,
      "Ġchristopher": 8088,
      "61": 8089,
      "ox": 8090,
      "Ġtong": 8091,
      "inks": 8092,
      "esp": 8093,
      "Ġdwar": 8094,
      "Ġlind": 8095,
      "aran": 8096,
      "Ġhell": 8097,
      "cios": 8098,
      "imed": 8099,
      "avÃŃa": 8100,
      "Ġata": 8101,
      "Ġshel": 8102,
      "Ġshop": 8103,
      "berty": 8104,
      "Ġdole": 8105,
      "Ġcalvin": 8106,
      "Ġ65": 8107,
      "Ġproducir": 8108,
      "Ġdress": 8109,
      "Ġcastro": 8110,
      "Ġservicio": 8111,
      "Ġhistoric": 8112,
      "Ġegip": 8113,
      "ĠpetrÃ³leo": 8114,
      "Ġ1906": 8115,
      "Ġ1908": 8116,
      "Ġtomorrow": 8117,
      "Ġdanza": 8118,
      "Ġreading": 8119,
      "Ġferro": 8120,
      "eye": 8121,
      "ĠdesarrollÃ³": 8122,
      "ĠpequeÃ±a": 8123,
      "Ġhacen": 8124,
      "ĠÃ¡rboles": 8125,
      "Ġcervantes": 8126,
      "ĠindÃŃgenas": 8127,
      "Ġsultan": 8128,
      "400": 8129,
      "ault": 8130,
      "wich": 8131,
      "onÃŃa": 8132,
      "Ġtob": 8133,
      "Ġbee": 8134,
      "Ġstreng": 8135,
      "opes": 8136,
      "Ġja": 8137,
      "Ġjam": 8138,
      "rix": 8139,
      "Ġplac": 8140,
      "Ġtrig": 8141,
      "encil": 8142,
      "encies": 8143,
      "ordan": 8144,
      "ecciÃ³n": 8145,
      "ĠocÃ©": 8146,
      "Ġsingles": 8147,
      "uestas": 8148,
      "Ġ1916": 8149,
      "Ġsoldier": 8150,
      "Ġcompleted": 8151,
      "Ġrenamed": 8152,
      "Ġunderstood": 8153,
      "Ġwilson": 8154,
      "Ġmicroscop": 8155,
      "Ġfestiv": 8156,
      "Ġroads": 8157,
      "Ġaspecto": 8158,
      "Ġinfloresc": 8159,
      "ĠazerbaiyÃ¡n": 8160,
      "Ġbulgaria": 8161,
      "hara": 8162,
      "hattan": 8163,
      "Ġion": 8164,
      "erus": 8165,
      "Ġsri": 8166,
      "Ġpink": 8167,
      "Ġll": 8168,
      "Ġmud": 8169,
      "Ġbath": 8170,
      "omic": 8171,
      "Ġtokyo": 8172,
      "amo": 8173,
      "Ġconci": 8174,
      "Ġrum": 8175,
      "etics": 8176,
      "Ġkir": 8177,
      "tered": 8178,
      "Ġtrin": 8179,
      "Ġdisposit": 8180,
      "ience": 8181,
      "Ġherit": 8182,
      "Ġgrows": 8183,
      "Ġguy": 8184,
      "Ġ600": 8185,
      "Ġinstruct": 8186,
      "Ġdebate": 8187,
      "ĠpasÃ³": 8188,
      "Ġcampos": 8189,
      "Ġsimilares": 8190,
      "Ġbombs": 8191,
      "Ġappears": 8192,
      "Ġfrontera": 8193,
      "Ġmunicipio": 8194,
      "Ġcosas": 8195,
      "Ġbreaks": 8196,
      "Ġagriculture": 8197,
      "Ġimagin": 8198,
      "ĠnÃºcleos": 8199,
      "Ġenemies": 8200,
      "Ġfinancial": 8201,
      "Ġfeatured": 8202,
      "Ġsurrounded": 8203,
      "ĠÃ¡mbito": 8204,
      "Ġorthodox": 8205,
      "Ġrebellion": 8206,
      "ti": 8207,
      "yth": 8208,
      "zant": 8209,
      "Ġaid": 8210,
      "Ġcero": 8211,
      "Ġpok": 8212,
      "Ġincid": 8213,
      "Ġgang": 8214,
      "Ġ120": 8215,
      "idores": 8216,
      "eme": 8217,
      "illos": 8218,
      "Ġheard": 8219,
      "Ġabst": 8220,
      "Ġtej": 8221,
      "Ġboat": 8222,
      "Ġpolar": 8223,
      "Ġevitar": 8224,
      "Ġcrew": 8225,
      "Ġoverth": 8226,
      "Ġanimated": 8227,
      "Ġ1915": 8228,
      "ÃŃcula": 8229,
      "ĠdiseÃ±o": 8230,
      "Ġlooked": 8231,
      "Ġrespir": 8232,
      "Ġdirectamente": 8233,
      "Ġmismos": 8234,
      "Ġbusinessman": 8235,
      "Ġfibras": 8236,
      "ĠjurÃŃd": 8237,
      "ĠescribiÃ³": 8238,
      "Ġfolk": 8239,
      "helm": 8240,
      "Ġcandidate": 8241,
      "Ġwednes": 8242,
      "Ġdiagnos": 8243,
      "Ġinhabitants": 8244,
      "Ġerrores": 8245,
      "Ġstorage": 8246,
      "mel": 8247,
      "Ġtiger": 8248,
      "Ġpure": 8249,
      "Ġmate": 8250,
      "Ġbism": 8251,
      "ĠficciÃ³n": 8252,
      "Ġlack": 8253,
      "opl": 8254,
      "oplas": 8255,
      "umental": 8256,
      "Ġlect": 8257,
      "ession": 8258,
      "Ġabol": 8259,
      "mann": 8260,
      "Ã¡nicos": 8261,
      "ficiente": 8262,
      "Ġmonday": 8263,
      "Ġtercer": 8264,
      "Ġmusul": 8265,
      "Ġmuscles": 8266,
      "Ġaires": 8267,
      "Ġplanning": 8268,
      "Ġexplot": 8269,
      "Ġproduces": 8270,
      "Ġhumanidad": 8271,
      "Ġmyth": 8272,
      "Ġ1860": 8273,
      "Ġ1898": 8274,
      "uerto": 8275,
      "Ġallowing": 8276,
      "Ġdepends": 8277,
      "Ġinicio": 8278,
      "ĠlÃŃder": 8279,
      "Ġtemplo": 8280,
      "ripciÃ³n": 8281,
      "Ġgiant": 8282,
      "ĠolÃŃmpicos": 8283,
      "Ġguatemala": 8284,
      "52": 8285,
      "82": 8286,
      "died": 8287,
      "oon": 8288,
      "wick": 8289,
      "Ġpages": 8290,
      "Ġllu": 8291,
      "arl": 8292,
      "Ġdecim": 8293,
      "Ġnik": 8294,
      "Ġgam": 8295,
      "Ġvid": 8296,
      "Ġvend": 8297,
      "Ġneck": 8298,
      "Ġmanhattan": 8299,
      "Ġmarine": 8300,
      "sea": 8301,
      "Ġverb": 8302,
      "Ġsafe": 8303,
      "Ġgermans": 8304,
      "Ġrecording": 8305,
      "Ġconocidos": 8306,
      "Ġtalib": 8307,
      "uye": 8308,
      "Ġsovi": 8309,
      "ĠestÃ¡ndar": 8310,
      "Ġmemoria": 8311,
      "Ġalfonso": 8312,
      "Ġtenerife": 8313,
      "Ġnazis": 8314,
      "Ġselling": 8315,
      "Ġvegetables": 8316,
      "Ġprogramming": 8317,
      "Ġpassenger": 8318,
      "Ġadquir": 8319,
      "Ġalaska": 8320,
      "%,": 8321,
      "76": 8322,
      "gi": 8323,
      "rones": 8324,
      "zy": 8325,
      "ĠÏ": 8326,
      "Ġcrow": 8327,
      "ĠdÃ³l": 8328,
      "Ġmens": 8329,
      "aling": 8330,
      "ĠhÃ¡": 8331,
      "Ġenorm": 8332,
      "Ġvess": 8333,
      "raba": 8334,
      "agement": 8335,
      "Ġcoc": 8336,
      "Ġcann": 8337,
      "angel": 8338,
      "Ġserver": 8339,
      "Ġnorweg": 8340,
      "active": 8341,
      "Ġverano": 8342,
      "phone": 8343,
      "rence": 8344,
      "Ġ49": 8345,
      "Ġmainland": 8346,
      "Ġ1913": 8347,
      "Ġresultados": 8348,
      "Ġangel": 8349,
      "Ġhistorians": 8350,
      "Ġpodemos": 8351,
      "Ġcircul": 8352,
      "Ġsched": 8353,
      "Ġduch": 8354,
      "Ġtribun": 8355,
      "amentos": 8356,
      "Ġdistribution": 8357,
      "Ġnarrow": 8358,
      "Ġflying": 8359,
      "Ġnominated": 8360,
      "Ġbenefic": 8361,
      "Ġcorriente": 8362,
      "Ġtarget": 8363,
      "Ġhorses": 8364,
      "Ġheritage": 8365,
      "Ġwednesday": 8366,
      "dra": 8367,
      "diz": 8368,
      "arily": 8369,
      "Ġow": 8370,
      "Ġfung": 8371,
      "ati": 8372,
      "Ġreject": 8373,
      "Ġvag": 8374,
      "Ġsuff": 8375,
      "Ġchia": 8376,
      "ereign": 8377,
      "Ġnepal": 8378,
      "akh": 8379,
      "Ġworst": 8380,
      "Ġrode": 8381,
      "Ġboats": 8382,
      "aÃ±os": 8383,
      "Ġedge": 8384,
      "ĠalgÃºn": 8385,
      "Ġfoundation": 8386,
      "Ġbaron": 8387,
      "Ġastorga": 8388,
      "Ġciudadanos": 8389,
      "Ġlatino": 8390,
      "Ġavan": 8391,
      "Ãºltip": 8392,
      "Ġreceive": 8393,
      "Ġprotests": 8394,
      "Ġevolved": 8395,
      "Ġstrip": 8396,
      "Ġstrike": 8397,
      "Ġacids": 8398,
      "Ġpermanent": 8399,
      "Ġarticles": 8400,
      "Ġaluminum": 8401,
      "Ġdisciplina": 8402,
      "Ġpronunci": 8403,
      "Ġvienna": 8404,
      "Ġwaters": 8405,
      "Ġnunca": 8406,
      "Ġheadquarters": 8407,
      "51": 8408,
      "79": 8409,
      "cript": 8410,
      "ging": 8411,
      "gender": 8412,
      "hÃŃ": 8413,
      "pus": 8414,
      "wers": 8415,
      "ĠsÃ£o": 8416,
      "Ġmama": 8417,
      "Ġhog": 8418,
      "Ġeug": 8419,
      "Ġunknown": 8420,
      "Ġsean": 8421,
      "Ġalab": 8422,
      "otes": 8423,
      "rap": 8424,
      "Ġask": 8425,
      "Ġparado": 8426,
      "Ġcanaria": 8427,
      "Ġsher": 8428,
      "Ġarc": 8429,
      "ocar": 8430,
      "Ġroof": 8431,
      "Ġengines": 8432,
      "Ġpuberty": 8433,
      "Ġfecha": 8434,
      "ĠtodavÃŃa": 8435,
      "Ġbuena": 8436,
      "Ġscore": 8437,
      "Ġdefensa": 8438,
      "Ġpasar": 8439,
      "Ġdiferente": 8440,
      "Ġspacecraft": 8441,
      "Ġawarded": 8442,
      "ĠdefiniciÃ³n": 8443,
      "ĠpolÃŃticos": 8444,
      "Ġrequire": 8445,
      "ĠadministraciÃ³n": 8446,
      "Ġcheap": 8447,
      "Ġramas": 8448,
      "Ġclasific": 8449,
      "Ġcierto": 8450,
      "Ġfarming": 8451,
      "Ġflatbed": 8452,
      "Ġestatuto": 8453,
      "Ġtorno": 8454,
      "Ġreefer": 8455,
      "Ġturkish": 8456,
      "Ġbastante": 8457,
      "Ġsucceeded": 8458,
      "igÃ¼edad": 8459,
      "Ġemergency": 8460,
      "Ġstrength": 8461,
      "ees": 8462,
      "made": 8463,
      "radas": 8464,
      "uff": 8465,
      "vas": 8466,
      "Ġtel": 8467,
      "Ġcats": 8468,
      "Ġpant": 8469,
      "Ġbishop": 8470,
      "Ġft": 8471,
      "idel": 8472,
      "idamente": 8473,
      "Ġrebel": 8474,
      "Ġseeds": 8475,
      "eman": 8476,
      "Ġkur": 8477,
      "Ġprohib": 8478,
      "Ġchick": 8479,
      "Ġnev": 8480,
      "sole": 8481,
      "Ġmargar": 8482,
      "Ġcarp": 8483,
      "Ġroles": 8484,
      "sex": 8485,
      "Ġprec": 8486,
      "Ġsyria": 8487,
      "Ġcalle": 8488,
      "Ġsubfam": 8489,
      "Ġattend": 8490,
      "Ġlarga": 8491,
      "Ġfuert": 8492,
      "Ġbatalla": 8493,
      "Ġpropias": 8494,
      "Ġpatent": 8495,
      "Ġprotagon": 8496,
      "Ġcolorado": 8497,
      "Ġoxide": 8498,
      "Ġfactores": 8499,
      "Ġspeaking": 8500,
      "Ġidentity": 8501,
      "Ġparticularly": 8502,
      "Ġreplace": 8503,
      "Ġqatar": 8504,
      "Ġalcanzar": 8505,
      "ĠibÃ©rica": 8506,
      "Ġrapid": 8507,
      "Ġcorresponde": 8508,
      "worth": 8509,
      "Ġbranches": 8510,
      "Ġfrancesa": 8511,
      "Ġmasturb": 8512,
      "Ġfiestas": 8513,
      "Ġapparently": 8514,
      "uguay": 8515,
      "Ġslightly": 8516,
      "europe": 8517,
      "cÃŃa": 8518,
      "mi": 8519,
      "rÃ¡": 8520,
      "ÏĤ": 8521,
      "Ġie": 8522,
      "Ġtay": 8523,
      "isa": 8524,
      "icion": 8525,
      "ami": 8526,
      "Ġrech": 8527,
      "Ġuncle": 8528,
      "ctica": 8529,
      "Ġritual": 8530,
      "emen": 8531,
      "andro": 8532,
      "Ġestaban": 8533,
      "Ġbyzant": 8534,
      "Ġroute": 8535,
      "Ġeleven": 8536,
      "Ġjoe": 8537,
      "Ġpopeye": 8538,
      "Ġinfra": 8539,
      "Ġsurge": 8540,
      "Ġcalcium": 8541,
      "Ġattention": 8542,
      "Ġbread": 8543,
      "Ġimpuls": 8544,
      "Ġtalks": 8545,
      "Ġgenerales": 8546,
      "Ġtests": 8547,
      "Ġcinemat": 8548,
      "Ġclassification": 8549,
      "Ġreactions": 8550,
      "Ġlouisiana": 8551,
      "Ġdiamante": 8552,
      "Ġtaxon": 8553,
      "Ġpunish": 8554,
      "Ġvalenciano": 8555,
      "Ġmurdered": 8556,
      "Ġaquellos": 8557,
      "Ġabsor": 8558,
      "Ġexpedition": 8559,
      "Ġstanley": 8560,
      "Ġfriedrich": 8561,
      "gue": 8562,
      "over": 8563,
      "Î¹": 8564,
      "Ġtir": 8565,
      "Ġlenn": 8566,
      "Ġniger": 8567,
      "Ġnelson": 8568,
      "iling": 8569,
      "ilidades": 8570,
      "imos": 8571,
      "Ġcongo": 8572,
      "Ġvest": 8573,
      "Ġrival": 8574,
      "igraciÃ³n": 8575,
      "Ġforward": 8576,
      "Ġpeop": 8577,
      "Ġcontienen": 8578,
      "Ġmedium": 8579,
      "Ġ44": 8580,
      "Ġelectro": 8581,
      "Ġarmed": 8582,
      "Ġrepresentar": 8583,
      "Ġmassive": 8584,
      "Ġsumm": 8585,
      "Ġnucleus": 8586,
      "Ġadvanced": 8587,
      "Ġaltas": 8588,
      "âĢĿ,": 8589,
      "Ġdominican": 8590,
      "ĠllevÃ³": 8591,
      "Ġcompetition": 8592,
      "Ġvoted": 8593,
      "Ġayuda": 8594,
      "Ġpresidency": 8595,
      "Ġrelativamente": 8596,
      "Ġisraeli": 8597,
      "Ġviaje": 8598,
      "Ġsharp": 8599,
      "Ġenemy": 8600,
      "Ġcarrera": 8601,
      "Ġpregnant": 8602,
      "Ġgrammy": 8603,
      "Ġanswer": 8604,
      "Ġmixture": 8605,
      "Ġbeyond": 8606,
      "58": 8607,
      "based": 8608,
      "cur": 8609,
      "dia": 8610,
      "Ġak": 8611,
      "Ġscul": 8612,
      "ĠmÃºltip": 8613,
      "Ġbund": 8614,
      "Ġbru": 8615,
      "itario": 8616,
      "Ġnicar": 8617,
      "Ġandes": 8618,
      "omach": 8619,
      "Ġalge": 8620,
      "Ġstable": 8621,
      "opol": 8622,
      "Ġjunta": 8623,
      "Ġexpos": 8624,
      "Ġarro": 8625,
      "Ġamino": 8626,
      "oga": 8627,
      "Ġadmir": 8628,
      "ĠcreÃ³": 8629,
      "Ġjoint": 8630,
      "web": 8631,
      "ecu": 8632,
      "minster": 8633,
      "Ġromana": 8634,
      "Ġnortheast": 8635,
      "Ġdeck": 8636,
      "Ġmaint": 8637,
      "Ġsixth": 8638,
      "Ġpropiedad": 8639,
      "Ġindependiente": 8640,
      "Ġlux": 8641,
      "Ġantiguas": 8642,
      "Ġportugues": 8643,
      "Ġceleb": 8644,
      "Ġprotected": 8645,
      "Ġwilhelm": 8646,
      "Ġconcern": 8647,
      "Ġmandela": 8648,
      "Ġphotos": 8649,
      "Ġfarmers": 8650,
      "Ġappearance": 8651,
      "ĠextensiÃ³n": 8652,
      "dinand": 8653,
      "Ġissue": 8654,
      "works": 8655,
      "ĠÃ³pt": 8656,
      "Ġterrorist": 8657,
      "Ġmilitares": 8658,
      "Ġninguna": 8659,
      "Ġtiny": 8660,
      "ĠquÃŃmica": 8661,
      "Ġproporcion": 8662,
      "Ġvolcanic": 8663,
      "Ġingenier": 8664,
      "Ġexchange": 8665,
      "zen": 8666,
      "arm": 8667,
      "Ġbav": 8668,
      "itis": 8669,
      "Ġencima": 8670,
      "Ġrab": 8671,
      "Ġrama": 8672,
      "andy": 8673,
      "rain": 8674,
      "Ġproof": 8675,
      "Ġcham": 8676,
      "Ġchain": 8677,
      "aging": 8678,
      "Ġcous": 8679,
      "Ġplans": 8680,
      "Ġshorter": 8681,
      "Ġleop": 8682,
      "Ġmano": 8683,
      "Ġabd": 8684,
      "Ġcompat": 8685,
      "kee": 8686,
      "Ġdiscos": 8687,
      "Ġpref": 8688,
      "ĠsoluciÃ³n": 8689,
      "Ġwealth": 8690,
      "Ġstrateg": 8691,
      "Ġconsideran": 8692,
      "Ġprotection": 8693,
      "uesday": 8694,
      "ĠpublicÃ³": 8695,
      "Ġ1890": 8696,
      "ĠestableciÃ³": 8697,
      "Ġdamaged": 8698,
      "Ġconstruy": 8699,
      "Ġconcentration": 8700,
      "Ġresistencia": 8701,
      "----": 8702,
      "Ġextremely": 8703,
      "Ġcryst": 8704,
      "Ġmalaysia": 8705,
      "Ġpeoples": 8706,
      "fc": 8707,
      "set": 8708,
      "Ã«": 8709,
      "Ġue": 8710,
      "Ġpp": 8711,
      "Ġbum": 8712,
      "Ġbios": 8713,
      "omes": 8714,
      "Ġtourn": 8715,
      "Ġuniform": 8716,
      "Ġsuced": 8717,
      "Ġcalls": 8718,
      "Ġaprend": 8719,
      "Ġentered": 8720,
      "Ġinteres": 8721,
      "Ġrelative": 8722,
      "Ġterren": 8723,
      "Ġconfir": 8724,
      "Ġpatri": 8725,
      "ÃŃsticos": 8726,
      "Ġ1905": 8727,
      "ucky": 8728,
      "Ġdiversidad": 8729,
      "Ġ1896": 8730,
      "Ġazte": 8731,
      "Ã¼r": 8732,
      "Ġjudge": 8733,
      "Ġcaracteres": 8734,
      "Ġferdinand": 8735,
      "Ġpanama": 8736,
      "Ġarrived": 8737,
      "Ġtourism": 8738,
      "Ġpeso": 8739,
      "Ġpredict": 8740,
      "Ġpunk": 8741,
      "ĠcataluÃ±a": 8742,
      "Ġguitarist": 8743,
      "Ġdictators": 8744,
      "Ġterminal": 8745,
      "Ġcornwall": 8746,
      "ĠmolÃ©": 8747,
      "Ġsaddam": 8748,
      "Ġcharged": 8749,
      "Ġmembrana": 8750,
      "Ġczech": 8751,
      "Ġjefferson": 8752,
      "Ġfantas": 8753,
      "ĠcontemporÃ¡n": 8754,
      "Ġrugby": 8755,
      "gal": 8756,
      "oe": 8757,
      "pers": 8758,
      "rated": 8759,
      "vent": 8760,
      "Î½": 8761,
      "Ġtuesday": 8762,
      "Ġdv": 8763,
      "Ġdallas": 8764,
      "Ġlies": 8765,
      "ĠlÃ³g": 8766,
      "Ġbail": 8767,
      "Ġhig": 8768,
      "icales": 8769,
      "Ġguns": 8770,
      "Ġcometa": 8771,
      "Ġwhom": 8772,
      "Ġjama": 8773,
      "Ġkhan": 8774,
      "Ġchess": 8775,
      "Ġamph": 8776,
      "Ġcomport": 8777,
      "place": 8778,
      "Ġmarry": 8779,
      "lando": 8780,
      "Ġprefect": 8781,
      "Ġcreado": 8782,
      "pool": 8783,
      "Ġcultivo": 8784,
      "Ġculturas": 8785,
      "Ġfunctions": 8786,
      "Ġlocaliz": 8787,
      "Ġrepresentan": 8788,
      "Ġ1909": 8789,
      "Ġderiva": 8790,
      "Ġambiente": 8791,
      "Ġcortes": 8792,
      "Ġequipos": 8793,
      "Ġazerbaijan": 8794,
      "Ġcivilization": 8795,
      "Ġsettled": 8796,
      "Ġantarctica": 8797,
      "Ġneptune": 8798,
      "mal": 8799,
      "inte": 8800,
      "Ġcint": 8801,
      "Ġpablo": 8802,
      "Ġfase": 8803,
      "amina": 8804,
      "Ġrept": 8805,
      "Ġrevel": 8806,
      "chi": 8807,
      "Ġrit": 8808,
      "Ġrush": 8809,
      "Ġbear": 8810,
      "ÃŃne": 8811,
      "Ã¡genes": 8812,
      "Ġexec": 8813,
      "Ġexhib": 8814,
      "aked": 8815,
      "Ġshark": 8816,
      "Ġshapes": 8817,
      "ĠâĢ¢": 8818,
      "Ġpreserv": 8819,
      "Ġgrey": 8820,
      "Ġsuppl": 8821,
      "Ġswiss": 8822,
      "Ġrefiere": 8823,
      "ursday": 8824,
      "Ġuruguay": 8825,
      "yleft": 8826,
      "Ġsemillas": 8827,
      "Ġlowest": 8828,
      "Ġconquered": 8829,
      "ĠapariciÃ³n": 8830,
      "Ġfalse": 8831,
      "Ġmodelos": 8832,
      "Ġcompuesto": 8833,
      "ĠasociaciÃ³n": 8834,
      "ĠinterpretaciÃ³n": 8835,
      "Ġdensidad": 8836,
      "Ġmantener": 8837,
      "ogrÃ¡fico": 8838,
      "Ġinnov": 8839,
      "Ġexperiments": 8840,
      "Ġizquier": 8841,
      "Ġá": 8842,
      "enso": 8843,
      "asure": 8844,
      "iced": 8845,
      "Ġnueve": 8846,
      "Ġgig": 8847,
      "Ġvib": 8848,
      "Ġsty": 8849,
      "Ġkos": 8850,
      "Ġparque": 8851,
      "Ġeso": 8852,
      "Ġplains": 8853,
      "Ġcarne": 8854,
      "Ġcolores": 8855,
      "Ġvertebr": 8856,
      "Ġregres": 8857,
      "Ġsubd": 8858,
      "Ġarmies": 8859,
      "Ġcastillo": 8860,
      "Ġexplodes": 8861,
      "Ġremove": 8862,
      "Ġharrison": 8863,
      "Ġoperations": 8864,
      "Ġwinning": 8865,
      "Ġputting": 8866,
      "cuentemente": 8867,
      "what": 8868,
      "Ġeffort": 8869,
      "Ġcompletamente": 8870,
      "Ġheaven": 8871,
      "igrantes": 8872,
      "Ġmathematical": 8873,
      "Ġfruits": 8874,
      "Ġsubstances": 8875,
      "Ġprinted": 8876,
      "Ġspirit": 8877,
      "Ġfrequency": 8878,
      "Ġpregnancy": 8879,
      "ĠrazÃ³n": 8880,
      "Ġtercera": 8881,
      "Ġnorwegian": 8882,
      ")<": 8883,
      "86": 8884,
      "hid": 8885,
      "tr": 8886,
      "Ġthursday": 8887,
      "Ġcus": 8888,
      "Ġbrie": 8889,
      "roe": 8890,
      "Ġtool": 8891,
      "Ġlabel": 8892,
      "ilib": 8893,
      "Ġencour": 8894,
      "tha": 8895,
      "Ġalive": 8896,
      "Ġalleg": 8897,
      "Ġrio": 8898,
      "Ġstones": 8899,
      "Ġstored": 8900,
      "Ġstomach": 8901,
      "isto": 8902,
      "Ġkash": 8903,
      "acia": 8904,
      "Ġhechos": 8905,
      "Ġexists": 8906,
      "Ġworth": 8907,
      "ĠimÃ¡genes": 8908,
      "Ġ34": 8909,
      "Ġinterested": 8910,
      "Ġmuscle": 8911,
      "Ġ700": 8912,
      "Ġsalida": 8913,
      "Ã³mica": 8914,
      "Ġowner": 8915,
      "Ġraf": 8916,
      "Ġsovereign": 8917,
      "nessee": 8918,
      "Ġdefinit": 8919,
      "Ġrespectivamente": 8920,
      "Ġampliamente": 8921,
      "Ġcalendario": 8922,
      "Ġextremo": 8923,
      "Ġalexand": 8924,
      "Ġfeeling": 8925,
      "Ġajed": 8926,
      "Ġdensity": 8927,
      "Ġcontacto": 8928,
      "Ġbronze": 8929,
      "Ġnewspapers": 8930,
      "ĠselecciÃ³n": 8931,
      "ĠenseÃ±anza": 8932,
      "Ġlevant": 8933,
      "hen": 8934,
      "ou": 8935,
      "sw": 8936,
      "tw": 8937,
      "Ġsales": 8938,
      "Ġdun": 8939,
      "onto": 8940,
      "Ġovers": 8941,
      "Ġbise": 8942,
      "Ġfan": 8943,
      "omous": 8944,
      "Ġgained": 8945,
      "Ġlab": 8946,
      "Ġlabour": 8947,
      "oli": 8948,
      "quÃŃm": 8949,
      "Ġcomics": 8950,
      "Ġasian": 8951,
      "Ã©d": 8952,
      "Ġexter": 8953,
      "Ġplural": 8954,
      "ianos": 8955,
      "Ġabor": 8956,
      "Ġdesem": 8957,
      "Ġdesemb": 8958,
      "Ġindica": 8959,
      "Ġamericas": 8960,
      "Ġphrase": 8961,
      "Ġ43": 8962,
      "Ġbasis": 8963,
      "Ġ55": 8964,
      "Ġinvas": 8965,
      "Ġprovides": 8966,
      "Ġdecision": 8967,
      "Ġescala": 8968,
      "fully": 8969,
      "Ġproducen": 8970,
      "ĠprotecciÃ³n": 8971,
      "Ġcommunities": 8972,
      "Ġmorf": 8973,
      "Ġgreeks": 8974,
      "Ġcamera": 8975,
      "Ġorganized": 8976,
      "Ġ1901": 8977,
      "Ġacceler": 8978,
      "Ġclasses": 8979,
      "Ġ1889": 8980,
      "Ġstands": 8981,
      "ocaust": 8982,
      "ĠvacÃŃa": 8983,
      "Ġpermiten": 8984,
      "ĠparticipaciÃ³n": 8985,
      "Ġcompuesta": 8986,
      "ĠubicaciÃ³n": 8987,
      "Ġcouple": 8988,
      "Ġsharks": 8989,
      "Ġkilometres": 8990,
      "Ġagujeros": 8991,
      "Ġfossil": 8992,
      "ĠcatÃ³lica": 8993,
      "Ġlungs": 8994,
      "97": 8995,
      "cor": 8996,
      "dy": 8997,
      "haps": 8998,
      "mod": 8999,
      "song": 9000,
      "viv": 9001,
      "esis": 9002,
      "Ġpact": 9003,
      "alidad": 9004,
      "Ġfile": 9005,
      "Ġhues": 9006,
      "icians": 9007,
      "Ġgil": 9008,
      "usa": 9009,
      "imir": 9010,
      "Ġvlad": 9011,
      "Ġstaff": 9012,
      "Ġcha": 9013,
      "illes": 9014,
      "Ġplain": 9015,
      "ocr": 9016,
      "Ġiod": 9017,
      "Ġclases": 9018,
      "Ġadel": 9019,
      "Ġspiders": 9020,
      "ĠserÃ¡": 9021,
      "Ġemir": 9022,
      "Ġafterno": 9023,
      "Ġotto": 9024,
      "Ġherram": 9025,
      "Ġespigu": 9026,
      "new": 9027,
      "Ġmodific": 9028,
      "cule": 9029,
      "Ġmetro": 9030,
      "Ġespecializ": 9031,
      "Ġtennis": 9032,
      "Ġtennessee": 9033,
      "Ġpatron": 9034,
      "Ġconvenci": 9035,
      "Ġlasted": 9036,
      "Ġsentenced": 9037,
      "Ġfollowers": 9038,
      "Ġ1895": 9039,
      "Ġincome": 9040,
      "Ġjuda": 9041,
      "Ġkeeps": 9042,
      "Ġstreets": 9043,
      "Ġnecesario": 9044,
      "Ġcomerciales": 9045,
      "Ġburned": 9046,
      "Ġadministration": 9047,
      "Ġresistance": 9048,
      "Ġresponsible": 9049,
      "Ġescuelas": 9050,
      "Ġedificio": 9051,
      "Ġremaining": 9052,
      "ĠexpansiÃ³n": 9053,
      "Ġpruebas": 9054,
      "Ġcontroversial": 9055,
      "Ġalgoritmos": 9056,
      "Ġfixed": 9057,
      "ĠcÃ¡diz": 9058,
      "Ġalquimia": 9059,
      "ovakia": 9060,
      "Ġneutrons": 9061,
      "Ġlewis": 9062,
      "Ġherramient": 9063,
      "%)": 9064,
      "from": 9065,
      "hand": 9066,
      "iqu": 9067,
      "kan": 9068,
      "Ġdal": 9069,
      "Ġbons": 9070,
      "Ġlam": 9071,
      "Ġalc": 9072,
      "Ġriv": 9073,
      "Ġrig": 9074,
      "Ġcometas": 9075,
      "Ġparks": 9076,
      "Ġleban": 9077,
      "Ġclock": 9078,
      "Ãºan": 9079,
      "Ġadjet": 9080,
      "Ġcolumn": 9081,
      "Ġreglas": 9082,
      "rency": 9083,
      "Ġfines": 9084,
      "Ġconstante": 9085,
      "Ġdistinct": 9086,
      "Ġshowing": 9087,
      "Ġfruto": 9088,
      "Ġcercan": 9089,
      "Ġsupporting": 9090,
      "Ġfewer": 9091,
      "Ġdepende": 9092,
      "Ġsciences": 9093,
      "Ġwalt": 9094,
      "Ġrainfor": 9095,
      "Ġosc": 9096,
      "Ġconsegu": 9097,
      "Ġviolent": 9098,
      "Ġdenominado": 9099,
      "Ġmaryland": 9100,
      "Ġcardinal": 9101,
      "Ġpreviously": 9102,
      "Ġhungarian": 9103,
      "ĠrecibiÃ³": 9104,
      "Ġmiembro": 9105,
      "Ġsettlers": 9106,
      "Ġgalaxy": 9107,
      "Ġcorteza": 9108,
      "Ġcommunication": 9109,
      "Ġorchestra": 9110,
      "ĠfenÃ³meno": 9111,
      "Ġbuscando": 9112,
      "Ġmetabol": 9113,
      "ĠcÃ¡mara": 9114,
      "Ġinstructions": 9115,
      "mus": 9116,
      "Ġ:": 9117,
      "Ġcow": 9118,
      "Ġtheories": 9119,
      "icus": 9120,
      "Ġunless": 9121,
      "Ġconcre": 9122,
      "Ġalter": 9123,
      "ayo": 9124,
      "appe": 9125,
      "Ġplato": 9126,
      "Ġimages": 9127,
      "portun": 9128,
      "Ġnorma": 9129,
      "Ġemail": 9130,
      "Ġformada": 9131,
      "Ġherm": 9132,
      "Ġ52": 9133,
      "Ġconstruct": 9134,
      "Ġartistas": 9135,
      "ducciÃ³n": 9136,
      "Ġowners": 9137,
      "Ġharm": 9138,
      "atoria": 9139,
      "Ġharder": 9140,
      "Ġdestacar": 9141,
      "Ġconstituye": 9142,
      "Ġincreasing": 9143,
      "Ġbusinesses": 9144,
      "Ġbullet": 9145,
      "Ġbirthday": 9146,
      "Ġlanz": 9147,
      "Ġciertas": 9148,
      "Ġocupa": 9149,
      "Ġdescubrimiento": 9150,
      "Ġinfection": 9151,
      "Ġfertiliz": 9152,
      "Ġpassengers": 9153,
      "Ġpiedra": 9154,
      "Ġatletismo": 9155,
      "Ġalabama": 9156,
      "Ġlennon": 9157,
      "''": 9158,
      "nov": 9159,
      "si": 9160,
      "vol": 9161,
      "wal": 9162,
      "Ġido": 9163,
      "Ġthrow": 9164,
      "Ġdor": 9165,
      "oros": 9166,
      "Ġlyn": 9167,
      "Ġbamb": 9168,
      "elve": 9169,
      "Ġvik": 9170,
      "emia": 9171,
[...]
